{
  "version": "1.0",
  "truncation": {
    "direction": "Right",
    "max_length": 256,
    "strategy": "LongestFirst",
    "stride": 0
  },
  "padding": null,
  "added_tokens": [
    {
      "id": 0,
      "content": "[PAD]",
      "single_word": false,
      "lstrip": false,
      "rstrip": false,
      "normalized": false,
      "special": true
    },
    {
      "id": 1,
      "content": "[UNK]",
      "single_word": false,
      "lstrip": false,
      "rstrip": false,
      "normalized": false,
      "special": true
    },
    {
      "id": 2,
      "content": "[CLS]",
      "single_word": false,
      "lstrip": false,
      "rstrip": false,
      "normalized": false,
      "special": true
    },
    {
      "id": 3,
      "content": "[SEP]",
      "single_word": false,
      "lstrip": false,
      "rstrip": false,
      "normalized": false,
      "special": true
    },
    {
      "id": 4,
      "content": "[MASK]",
      "single_word": false,
      "lstrip": false,
      "rstrip": false,
      "normalized": false,
      "special": true
    }
  ],
  "normalizer": {
    "type": "BertNormalizer",
    "clean_text": true,
    "handle_chinese_chars": true,
    "strip_accents": null,
    "lowercase": false
  },
  "pre_tokenizer": {
    "type": "BertPreTokenizer"
  },
  "post_processor": {
    "type": "TemplateProcessing",
    "single": [
      {
        "SpecialToken": {
          "id": "[CLS]",
          "type_id": 0
        }
      },
      {
        "Sequence": {
          "id": "A",
          "type_id": 0
        }
      },
      {
        "SpecialToken": {
          "id": "[SEP]",
          "type_id": 0
        }
      }
    ],
    "pair": [
      {
        "SpecialToken": {
          "id": "[CLS]",
          "type_id": 0
        }
      },
      {
        "Sequence": {
          "id": "A",
          "type_id": 0
        }
      },
      {
        "SpecialToken": {
          "id": "[SEP]",
          "type_id": 0
        }
      },
      {
        "Sequence": {
          "id": "B",
          "type_id": 1
        }
      },
      {
        "SpecialToken": {
          "id": "[SEP]",
          "type_id": 1
        }
      }
    ],
    "special_tokens": {
      "[CLS]": {
        "id": "[CLS]",
        "ids": [
          2
        ],
        "tokens": [
          "[CLS]"
        ]
      },
      "[SEP]": {
        "id": "[SEP]",
        "ids": [
          3
        ],
        "tokens": [
          "[SEP]"
        ]
      }
    }
  },
  "decoder": {
    "type": "WordPiece",
    "prefix": "##",
    "cleanup": true
  },
  "model": {
    "type": "WordPiece",
    "unk_token": "[UNK]",
    "continuing_subword_prefix": "##",
    "max_input_chars_per_word": 100,
    "vocab": {
      "[PAD]": 0,
      "[UNK]": 1,
      "[CLS]": 2,
      "[SEP]": 3,
      "[MASK]": 4,
      "#": 5,
      "%": 6,
      "'": 7,
      "(": 8,
      ")": 9,
      "*": 10,
      "+": 11,
      "-": 12,
      ".": 13,
      "/": 14,
      "0": 15,
      "1": 16,
      "2": 17,
      "3": 18,
      "4": 19,
      "5": 20,
      "6": 21,
      "7": 22,
      "8": 23,
      "9": 24,
      ":": 25,
      "=": 26,
      "[": 27,
      "]": 28,
      "_": 29,
      "a": 30,
      "b": 31,
      "c": 32,
      "d": 33,
      "e": 34,
      "f": 35,
      "g": 36,
      "h": 37,
      "i": 38,
      "j": 39,
      "k": 40,
      "l": 41,
      "m": 42,
      "n": 43,
      "o": 44,
      "p": 45,
      "q": 46,
      "r": 47,
      "s": 48,
      "t": 49,
      "u": 50,
      "v": 51,
      "w": 52,
      "x": 53,
      "y": 54,
      "z": 55,
      "{": 56,
      "|": 57,
      "}": 58,
      "##f": 59,
      "##7": 60,
      "##d": 61,
      "##6": 62,
      "##2": 63,
      "##4": 64,
      "##5": 65,
      "##1": 66,
      "##8": 67,
      "##3": 68,
      "##9": 69,
      "##a": 70,
      "##c": 71,
      "##e": 72,
      "##t": 73,
      "##0": 74,
      "##b": 75,
      "##n": 76,
      "##i": 77,
      "##r": 78,
      "##o": 79,
      "##s": 80,
      "##p": 81,
      "##l": 82,
      "##u": 83,
      "##g": 84,
      "##w": 85,
      "##h": 86,
      "##v": 87,
      "##m": 88,
      "##y": 89,
      "##z": 90,
      "##k": 91,
      "##x": 92,
      "##j": 93,
      "##q": 94,
      "##in": 95,
      "20": 96,
      "##00": 97,
      "##se": 98,
      "##at": 99,
      "##on": 100,
      "##re": 101,
      "##er": 102,
      "on": 103,
      "##set": 104,
      "onset": 105,
      "##ing": 106,
      "##or": 107,
      "201": 108,
      "##ion": 109,
      "##ed": 110,
      "##it": 111,
      "202": 112,
      "##is": 113,
      "##al": 114,
      "##ic": 115,
      "##nt": 116,
      "##ol": 117,
      "##ation": 118,
      "##me": 119,
      "in": 120,
      "##es": 121,
      "##as": 122,
      "##ind": 123,
      "##inding": 124,
      "finding": 125,
      "##ar": 126,
      "##t1": 127,
      "##an": 128,
      "dis": 129,
      "pr": 130,
      "##t0": 131,
      "re": 132,
      "19": 133,
      "##ou": 134,
      "##ord": 135,
      "##lo": 136,
      "disord": 137,
      "disorder": 138,
      "10": 139,
      "##oc": 140,
      "02": 141,
      "03": 142,
      "11": 143,
      "##ate": 144,
      "st": 145,
      "##ure": 146,
      "##000": 147,
      "of": 148,
      "##ri": 149,
      "05": 150,
      "##ue": 151,
      "09": 152,
      "##um": 153,
      "med": 154,
      "##007": 155,
      "medic": 156,
      "to": 157,
      "##ine": 158,
      "12": 159,
      "01": 160,
      "##ce": 161,
      "##ie": 162,
      "##ass": 163,
      "proc": 164,
      "##edure": 165,
      "procedure": 166,
      "04": 167,
      "##om": 168,
      "06": 169,
      "##od": 170,
      "medication": 171,
      "##et": 172,
      "di": 173,
      "08": 174,
      "31": 175,
      "28": 176,
      "##ume": 177,
      "16": 178,
      "or": 179,
      "vol": 180,
      "volume": 181,
      "07": 182,
      "ur": 183,
      "pre": 184,
      "##itu": 185,
      "2016": 186,
      "urine": 187,
      "2017": 188,
      "18": 189,
      "##ll": 190,
      "##mp": 191,
      "##ab": 192,
      "##ss": 193,
      "##th": 194,
      "##en": 195,
      "##iv": 196,
      "nan": 197,
      "##29": 198,
      "##ment": 199,
      "##est": 200,
      "##5z": 201,
      "due": 202,
      "42": 203,
      "pl": 204,
      "##45": 205,
      "mass": 206,
      "##em": 207,
      "en": 208,
      "##ary": 209,
      "##ount": 210,
      "##are": 211,
      "##co": 212,
      "situ": 213,
      "situation": 214,
      "date": 215,
      "mg": 216,
      "##ity": 217,
      "##rip": 218,
      "17": 219,
      "2020": 220,
      "##09": 221,
      "you": 222,
      "##ct": 223,
      "con": 224,
      "2021": 225,
      "##ir": 226,
      "by": 227,
      "for": 228,
      "21": 229,
      "##iew": 230,
      "##view": 231,
      "review": 232,
      "##4529": 233,
      "314529": 234,
      "314529007": 235,
      "##count": 236,
      "encount": 237,
      "encounter": 238,
      "blo": 239,
      "blood": 240,
      "27": 241,
      "##mary": 242,
      "##ap": 243,
      "13": 244,
      "22": 245,
      "##art": 246,
      "##t11": 247,
      "2019": 248,
      "##400": 249,
      "th": 250,
      "##id": 251,
      "2018": 252,
      "ch": 253,
      "##il": 254,
      "test": 255,
      "##ime": 256,
      "##ge": 257,
      "2022": 258,
      "24": 259,
      "##ur": 260,
      "30": 261,
      "an": 262,
      "##itis": 263,
      "##t01": 264,
      "##300": 265,
      "dl": 266,
      "##og": 267,
      "2024": 268,
      "##loy": 269,
      "##mploy": 270,
      "id": 271,
      "2023": 272,
      "##ot": 273,
      "##sen": 274,
      "##t07": 275,
      "##ig": 276,
      "23": 277,
      "26": 278,
      "time": 279,
      "##ul": 280,
      "se": 281,
      "ser": 282,
      "25": 283,
      "##ress": 284,
      "1609": 285,
      "199": 286,
      "##inal": 287,
      "14": 288,
      "2025": 289,
      "##ent": 290,
      "##ch": 291,
      "employ": 292,
      "employment": 293,
      "53": 294,
      "##ma": 295,
      "##us": 296,
      "73": 297,
      "15": 298,
      "care": 299,
      "strip": 300,
      "serum": 301,
      "28z": 302,
      "198": 303,
      "##igh": 304,
      "##62": 305,
      "##800": 306,
      "##asma": 307,
      "plasma": 308,
      "mm": 309,
      "16090": 310,
      "as": 311,
      "42z": 312,
      "##5000": 313,
      "##ient": 314,
      "##atient": 315,
      "nom": 316,
      "nominal": 317,
      "##ith": 318,
      "##gn": 319,
      "with": 320,
      "wor": 321,
      "##ve": 322,
      "wh": 323,
      "##10": 324,
      "##ron": 325,
      "sy": 326,
      "##59": 327,
      "##emog": 328,
      "##ac": 329,
      "29": 330,
      "##ingiv": 331,
      "##tom": 332,
      "medications": 333,
      "45z": 334,
      "pri": 335,
      "primary": 336,
      "patient": 337,
      "##ase": 338,
      "##st": 339,
      "##ronic": 340,
      "##ite": 341,
      "chronic": 342,
      "cont": 343,
      "cl": 344,
      "##ose": 345,
      "2015": 346,
      "gingiv": 347,
      "stress": 348,
      "##ast": 349,
      "sco": 350,
      "score": 351,
      "##1000": 352,
      "50": 353,
      "##ial": 354,
      "##ra": 355,
      "fu": 356,
      "##38": 357,
      "##low": 358,
      "##ollow": 359,
      "follow": 360,
      "##31": 361,
      "##002": 362,
      "##ory": 363,
      "up": 364,
      "##ne": 365,
      "##tal": 366,
      "2014": 367,
      "mol": 368,
      "##t2": 369,
      "ra": 370,
      "ret": 371,
      "##ason": 372,
      "total": 373,
      "full": 374,
      "##ody": 375,
      "part": 376,
      "##tion": 377,
      "##anic": 378,
      "he": 379,
      "body": 380,
      "##char": 381,
      "##ell": 382,
      "dischar": 383,
      "##panic": 384,
      "##ispanic": 385,
      "race": 386,
      "7359": 387,
      "73595000": 388,
      "##3007": 389,
      "##abet": 390,
      "##19": 391,
      "mmol": 392,
      "moles": 393,
      "##ort": 394,
      "##sing": 395,
      "44": 396,
      "55z": 397,
      "##ly": 398,
      "##mptom": 399,
      "symptom": 400,
      "160903007": 401,
      "sex": 402,
      "##89": 403,
      "##ect": 404,
      "##agn": 405,
      "##07": 406,
      "diagn": 407,
      "##ental": 408,
      "##port": 409,
      "##rib": 410,
      "ph": 411,
      "##yp": 412,
      "##urn": 413,
      "dental": 414,
      "##dit": 415,
      "##sc": 416,
      "no": 417,
      "##rap": 418,
      "##raph": 419,
      "##abetes": 420,
      "##ain": 421,
      "eth": 422,
      "21z": 423,
      "des": 424,
      "plan": 425,
      "discharge": 426,
      "desc": 427,
      "symptoms": 428,
      "##raphic": 429,
      "contin": 430,
      "##t08": 431,
      "66": 432,
      "class": 433,
      "le": 434,
      "bir": 435,
      "birth": 436,
      "sum": 437,
      "summary": 438,
      "dat": 439,
      "demog": 440,
      "##date": 441,
      "##nic": 442,
      "##ions": 443,
      "reason": 444,
      "presc": 445,
      "##ription": 446,
      "condit": 447,
      "##sening": 448,
      "worsening": 449,
      "##oses": 450,
      "return": 451,
      "diagnoses": 452,
      "##ribed": 453,
      "ethnic": 454,
      "description": 455,
      "##raphics": 456,
      "continue": 457,
      "birthdate": 458,
      "dates": 459,
      "demographics": 460,
      "prescribed": 461,
      "conditions": 462,
      "ethnicity": 463,
      "white": 464,
      "ob": 465,
      "##le": 466,
      "##t15": 467,
      "ne": 468,
      "##t12": 469,
      "##3009": 470,
      "prap": 471,
      "prapare": 472,
      "37": 473,
      "presen": 474,
      "presence": 475,
      "and": 476,
      "##ear": 477,
      "##rom": 478,
      "not": 479,
      "200": 480,
      "gingivitis": 481,
      "##383009": 482,
      "66383009": 483,
      "##lu": 484,
      "##sease": 485,
      "disease": 486,
      "##bin": 487,
      "ab": 488,
      "from": 489,
      "197": 490,
      "##im": 491,
      "##ight": 492,
      "##am": 493,
      "##ium": 494,
      "##85": 495,
      "##ide": 496,
      "non": 497,
      "##10001": 498,
      "##op": 499,
      "kid": 500,
      "##ney": 501,
      "kidney": 502,
      "the": 503,
      "pain": 504,
      "rate": 505,
      "##age": 506,
      "##atory": 507,
      "am": 508,
      "##t02": 509,
      "be": 510,
      "##86": 511,
      "##8z": 512,
      "ed": 513,
      "##ow": 514,
      "year": 515,
      "start": 516,
      "##de": 517,
      "##uc": 518,
      "lab": 519,
      "##ocial": 520,
      "social": 521,
      "##17": 522,
      "educ": 523,
      "##69": 524,
      "high": 525,
      "##hispanic": 526,
      "nonhispanic": 527,
      "report": 528,
      "##ut": 529,
      "diabetes": 530,
      "mell": 531,
      "##itus": 532,
      "mellitus": 533,
      "##1000119": 534,
      "##100011910": 535,
      "##ver": 536,
      "your": 537,
      "##fe": 538,
      "##ia": 539,
      "procedures": 540,
      "##006": 541,
      "##mo": 542,
      "ha": 543,
      "##ep": 544,
      "education": 545,
      "##olic": 546,
      "have": 547,
      "liv": 548,
      "ml": 549,
      "all": 550,
      "##inus": 551,
      "are": 552,
      "##48": 553,
      "glu": 554,
      "##cose": 555,
      "glucose": 556,
      "##ee": 557,
      "##008": 558,
      "##ily": 559,
      "inde": 560,
      "index": 561,
      "40": 562,
      "min": 563,
      "59": 564,
      "##t14": 565,
      "ac": 566,
      "##t13": 567,
      "oral": 568,
      "ex": 569,
      "##ore": 570,
      "sinus": 571,
      "sinusitis": 572,
      "##cy": 573,
      "##atin": 574,
      "##let": 575,
      "##26": 576,
      "rat": 577,
      "##56": 578,
      "57": 579,
      "24z": 580,
      "##ran": 581,
      "##ro": 582,
      "##7000": 583,
      "##t19": 584,
      "##14": 585,
      "33": 586,
      "##24": 587,
      "##rans": 588,
      "34": 589,
      "##4001": 590,
      "##4009": 591,
      "det": 592,
      "160904001": 593,
      "##act": 594,
      "43": 595,
      "##4005": 596,
      "past": 597,
      "vir": 598,
      "##t09": 599,
      "##76": 600,
      "press": 601,
      "pressure": 602,
      "##bul": 603,
      "##ser": 604,
      "stage": 605,
      "obser": 606,
      "observ": 607,
      "has": 608,
      "sc": 609,
      "hou": 610,
      "housing": 611,
      "viral": 612,
      "hg": 613,
      "kg": 614,
      "##43": 615,
      "need": 616,
      "##ein": 617,
      "##otein": 618,
      "##ys": 619,
      "##t18": 620,
      "protein": 621,
      "##orm": 622,
      "ambul": 623,
      "ambulatory": 624,
      "qu": 625,
      "55": 626,
      "##009": 627,
      "##004": 628,
      "typ": 629,
      "pregn": 630,
      "nit": 631,
      "trans": 632,
      "nitr": 633,
      "##ated": 634,
      "##ally": 635,
      "##if": 636,
      "##02": 637,
      "type": 638,
      "##82": 639,
      "##ancy": 640,
      "pregnancy": 641,
      "##atus": 642,
      "status": 643,
      "observation": 644,
      "##8004": 645,
      "##ner": 646,
      "##sess": 647,
      "assess": 648,
      "assessment": 649,
      "##ance": 650,
      "partner": 651,
      "##ormal": 652,
      "##12": 653,
      "##emia": 654,
      "##t16": 655,
      "reported": 656,
      "cre": 657,
      "##atinine": 658,
      "creatinine": 659,
      "labs": 660,
      "observations": 661,
      "hemog": 662,
      "##alth": 663,
      "##ten": 664,
      "##eet": 665,
      "36": 666,
      "##vel": 667,
      "level": 668,
      "47": 669,
      "ap": 670,
      "##alc": 671,
      "calc": 672,
      "##lobin": 673,
      "hemoglobin": 674,
      "196": 675,
      "tab": 676,
      "tablet": 677,
      "any": 678,
      "##49": 679,
      "##dd": 680,
      "##reen": 681,
      "##892": 682,
      "smo": 683,
      "smok": 684,
      "screen": 685,
      "screening": 686,
      "##t00": 687,
      "fam": 688,
      "been": 689,
      "72": 690,
      "family": 691,
      "##t17": 692,
      "431": 693,
      "is": 694,
      "##98": 695,
      "##8003": 696,
      "43185": 697,
      "##ute": 698,
      "hyp": 699,
      "hyper": 700,
      "acute": 701,
      "un": 702,
      "##ack": 703,
      "##08": 704,
      "sp": 705,
      "al": 706,
      "##t10": 707,
      "work": 708,
      "224": 709,
      "inj": 710,
      "au": 711,
      "rece": 712,
      "##ived": 713,
      "22429": 714,
      "received": 715,
      "##46": 716,
      "##out": 717,
      "##005": 718,
      "##use": 719,
      "dep": 720,
      "car": 721,
      "health": 722,
      "app": 723,
      "##t06": 724,
      "##ec": 725,
      "bil": 726,
      "##iru": 727,
      "biliru": 728,
      "bilirubin": 729,
      "##ected": 730,
      "reg": 731,
      "45": 732,
      "##oride": 733,
      "##bac": 734,
      "##ection": 735,
      "##di": 736,
      "1986": 737,
      "##able": 738,
      "tobac": 739,
      "tobacco": 740,
      "do": 741,
      "39": 742,
      "##erap": 743,
      "##erapy": 744,
      "##71": 745,
      "count": 746,
      "##tomated": 747,
      "automated": 748,
      "rec": 749,
      "su": 750,
      "##sion": 751,
      "##5002": 752,
      "33z": 753,
      "##53": 754,
      "##22": 755,
      "##yt": 756,
      "ins": 757,
      "##ocyt": 758,
      "sever": 759,
      "severity": 760,
      "detected": 761,
      "ket": 762,
      "keton": 763,
      "##ings": 764,
      "get": 765,
      "2013": 766,
      "13z": 767,
      "abuse": 768,
      "162": 769,
      "00": 770,
      "act": 771,
      "41": 772,
      "normal": 773,
      "##892002": 774,
      "72892002": 775,
      "##ers": 776,
      "##ogen": 777,
      "##bal": 778,
      "##rent": 779,
      "##oth": 780,
      "##esity": 781,
      "obesity": 782,
      "##864005": 783,
      "162864005": 784,
      "56": 785,
      "it": 786,
      "m2": 787,
      "yes": 788,
      "54": 789,
      "sch": 790,
      "46": 791,
      "##01": 792,
      "##ular": 793,
      "heart": 794,
      "74": 795,
      "##urrent": 796,
      "therapy": 797,
      "##481": 798,
      "##eric": 799,
      "44481": 800,
      "444814009": 801,
      "48": 802,
      "38z": 803,
      "##ool": 804,
      "school": 805,
      "pe": 806,
      "ver": 807,
      "##173": 808,
      "at": 809,
      "we": 810,
      "weight": 811,
      "int": 812,
      "num": 813,
      "##t20": 814,
      "fee": 815,
      "last": 816,
      "was": 817,
      "live": 818,
      "feel": 819,
      "rating": 820,
      "numeric": 821,
      "mem": 822,
      "##bers": 823,
      "needed": 824,
      "members": 825,
      "##9000": 826,
      "verbal": 827,
      "more": 828,
      "##b9": 829,
      "52": 830,
      "##amin": 831,
      "##47": 832,
      "lo": 833,
      "##ysis": 834,
      "##003": 835,
      "hispanic": 836,
      "40z": 837,
      "32": 838,
      "##t04": 839,
      "##dr": 840,
      "activ": 841,
      "58": 842,
      "using": 843,
      "##ces": 844,
      "##imate": 845,
      "27173": 846,
      "anemia": 847,
      "271737000": 848,
      "##06": 849,
      "##3003": 850,
      "1990": 851,
      "higher": 852,
      "224299000": 853,
      "##8100011910": 854,
      "##alysis": 855,
      "dialysis": 856,
      "inf": 857,
      "than": 858,
      "est": 859,
      "##05": 860,
      "2009": 861,
      "##ression": 862,
      "how": 863,
      "about": 864,
      "current": 865,
      "sod": 866,
      "sodium": 867,
      "isol": 868,
      "4226": 869,
      "isolation": 870,
      "##50009": 871,
      "422650009": 872,
      "depression": 873,
      "activity": 874,
      "##ople": 875,
      "##oin": 876,
      "living": 877,
      "people": 878,
      "##uri": 879,
      "##uria": 880,
      "##oint": 881,
      "##13": 882,
      "##ren": 883,
      "regime": 884,
      "##loride": 885,
      "##bd": 886,
      "contact": 887,
      "ref": 888,
      "leu": 889,
      "01z": 890,
      "##t21": 891,
      "val": 892,
      "col": 893,
      "##kocyt": 894,
      "leukocyt": 895,
      "51": 896,
      "##5f": 897,
      "labor": 898,
      "##io": 899,
      "1712": 900,
      "##07006": 901,
      "171207006": 902,
      "##1062": 903,
      "force": 904,
      "741062": 905,
      "741062008": 906,
      "pro": 907,
      "49": 908,
      "teet": 909,
      "teeth": 910,
      "##331": 911,
      "2012": 912,
      "lim": 913,
      "##ited": 914,
      "limited": 915,
      "2669": 916,
      "##0c": 917,
      "105": 918,
      "42331": 919,
      "423315002": 920,
      "##lem": 921,
      "57z": 922,
      "af": 923,
      "##ist": 924,
      "##3006": 925,
      "examin": 926,
      "examination": 927,
      "48z": 928,
      "##62009": 929,
      "add": 930,
      "##ox": 931,
      "transport": 932,
      "address": 933,
      "##our": 934,
      "sour": 935,
      "##t03": 936,
      "##2004": 937,
      "##75": 938,
      "cor": 939,
      "##t23": 940,
      "##1c": 941,
      "inco": 942,
      "income": 943,
      "##mer": 944,
      "this": 945,
      "##68": 946,
      "38": 947,
      "##ifi": 948,
      "##8002": 949,
      "unt": 950,
      "##16": 951,
      "##8007": 952,
      "##pir": 953,
      "##rect": 954,
      "ris": 955,
      "risk": 956,
      "##ill": 957,
      "height": 958,
      "##bum": 959,
      "##bumin": 960,
      "res": 961,
      "qual": 962,
      "prob": 963,
      "##nd": 964,
      "##piratory": 965,
      "respiratory": 966,
      "pot": 967,
      "##assium": 968,
      "potassium": 969,
      "##bon": 970,
      "##rence": 971,
      "diox": 972,
      "carbon": 973,
      "dioxide": 974,
      "syst": 975,
      "25z": 976,
      "ure": 977,
      "nitrogen": 978,
      "calcium": 979,
      "urea": 980,
      "chloride": 981,
      "17z": 982,
      "value": 983,
      "710": 984,
      "problem": 985,
      "##erol": 986,
      "##ifier": 987,
      "qualifier": 988,
      "une": 989,
      "##mployed": 990,
      "unemployed": 991,
      "714": 992,
      "##val": 993,
      "278": 994,
      "nitrite": 995,
      "ketones": 996,
      "mic": 997,
      "micro": 998,
      "89": 999,
      "predi": 1000,
      "##628002": 1001,
      "714628002": 1002,
      "prediabetes": 1003,
      "es": 1004,
      "##ference": 1005,
      "1993": 1006,
      "sub": 1007,
      "ratio": 1008,
      "diast": 1009,
      "systolic": 1010,
      "diastolic": 1011,
      "##estion": 1012,
      "hum": 1013,
      "##ract": 1014,
      "##ay": 1015,
      "tooth": 1016,
      "color": 1017,
      "##tension": 1018,
      "hypertension": 1019,
      "##sent": 1020,
      "##621000": 1021,
      "59621000": 1022,
      "essent": 1023,
      "essential": 1024,
      "bm": 1025,
      "bmi": 1026,
      "##001": 1027,
      "##ess": 1028,
      "34z": 1029,
      "question": 1030,
      "65": 1031,
      "##03": 1032,
      "7343": 1033,
      "fb": 1034,
      "##fb": 1035,
      "00z": 1036,
      "##0009": 1037,
      "ep": 1038,
      "##ulin": 1039,
      "##48004": 1040,
      "44z": 1041,
      "infection": 1042,
      "dr": 1043,
      "cm": 1044,
      "1956": 1045,
      "##albumin": 1046,
      "microalbumin": 1047,
      "73438004": 1048,
      "hist": 1049,
      "history": 1050,
      "109": 1051,
      "127": 1052,
      "##3001": 1053,
      "##minal": 1054,
      "chol": 1055,
      "##esterol": 1056,
      "cholesterol": 1057,
      "record": 1058,
      "cri": 1059,
      "266948004": 1060,
      "criminal": 1061,
      "##ting": 1062,
      "05z": 1063,
      "##6006": 1064,
      "##ile": 1065,
      "##242": 1066,
      "##urance": 1067,
      "insurance": 1068,
      "dif": 1069,
      "1871": 1070,
      "gingival": 1071,
      "18718003": 1072,
      "##04": 1073,
      "##vir": 1074,
      "##66": 1075,
      "##vement": 1076,
      "ent": 1077,
      "medical": 1078,
      "well": 1079,
      "lack": 1080,
      "transportation": 1081,
      "53z": 1082,
      "##vol": 1083,
      "invol": 1084,
      "160968": 1085,
      "involvement": 1086,
      "160968000": 1087,
      "smoking": 1088,
      "8242": 1089,
      "82423001": 1090,
      "difference": 1091,
      "2011": 1092,
      "fill": 1093,
      "filling": 1094,
      "##15": 1095,
      "calcul": 1096,
      "59z": 1097,
      "##ea": 1098,
      "15z": 1099,
      "glo": 1100,
      "##t22": 1101,
      "##gly": 1102,
      "1995": 1103,
      "##23": 1104,
      "##ration": 1105,
      "##ept": 1106,
      "##ult": 1107,
      "da": 1108,
      "serv": 1109,
      "kept": 1110,
      "##ments": 1111,
      "appoint": 1112,
      "getting": 1113,
      "appointments": 1114,
      "37z": 1115,
      "##ness": 1116,
      "mig": 1117,
      "migra": 1118,
      "##4002": 1119,
      "met": 1120,
      "14z": 1121,
      "##789": 1122,
      "##32": 1123,
      "##013003": 1124,
      "127013003": 1125,
      "##7e": 1126,
      "##str": 1127,
      "##ad": 1128,
      "##cc": 1129,
      "42789": 1130,
      "427898007": 1131,
      "fac": 1132,
      "##eral": 1133,
      "##74": 1134,
      "1982": 1135,
      "phys": 1136,
      "physic": 1137,
      "07z": 1138,
      "35": 1139,
      "##uge": 1140,
      "refuge": 1141,
      "refugee": 1142,
      "907": 1143,
      "gen": 1144,
      "##f3": 1145,
      "1998": 1146,
      "##81000119102": 1147,
      "microalbuminuria": 1148,
      "90781000119102": 1149,
      "##d9": 1150,
      "##king": 1151,
      "126": 1152,
      "1989": 1153,
      "##d4": 1154,
      "##onment": 1155,
      "envir": 1156,
      "environment": 1157,
      "area": 1158,
      "cons": 1159,
      "##que": 1160,
      "##ific": 1161,
      "##hol": 1162,
      "##ultation": 1163,
      "that": 1164,
      "##ury": 1165,
      "injury": 1166,
      "##cer": 1167,
      "meet": 1168,
      "things": 1169,
      "meetings": 1170,
      "1974": 1171,
      "##ng": 1172,
      "remo": 1173,
      "removal": 1174,
      "##aryng": 1175,
      "pharyng": 1176,
      "195662009": 1177,
      "pharyngitis": 1178,
      "general": 1179,
      "##inop": 1180,
      "##ost": 1181,
      "daily": 1182,
      "##5005": 1183,
      "pla": 1184,
      "431855005": 1185,
      "##erase": 1186,
      "##ae": 1187,
      "2010": 1188,
      "##ument": 1189,
      "instr": 1190,
      "##rigly": 1191,
      "instrument": 1192,
      "##riglycer": 1193,
      "form": 1194,
      "##itic": 1195,
      "entitic": 1196,
      "calculus": 1197,
      "##gingiv": 1198,
      "plaque": 1199,
      "##gingival": 1200,
      "##30": 1201,
      "##ention": 1202,
      "##ased": 1203,
      "following": 1204,
      "##patient": 1205,
      "##ula": 1206,
      "clo": 1207,
      "##ilt": 1208,
      "see": 1209,
      "based": 1210,
      "filt": 1211,
      "mdr": 1212,
      "sq": 1213,
      "##merular": 1214,
      "glomerular": 1215,
      "formula": 1216,
      "filtration": 1217,
      "mdrd": 1218,
      "1980": 1219,
      "##cent": 1220,
      "##ere": 1221,
      "##ive": 1222,
      "##ax": 1223,
      "##ility": 1224,
      "ja": 1225,
      "1992": 1226,
      "22z": 1227,
      "wellness": 1228,
      "vis": 1229,
      "31z": 1230,
      "##rome": 1231,
      "18z": 1232,
      "##84": 1233,
      "##ath": 1234,
      "##4006": 1235,
      "431856006": 1236,
      "1994": 1237,
      "synd": 1238,
      "1978": 1239,
      "syndrome": 1240,
      "wee": 1241,
      "week": 1242,
      "cent": 1243,
      "center": 1244,
      "best": 1245,
      "what": 1246,
      "##eck": 1247,
      "check": 1248,
      "##afe": 1249,
      "close": 1250,
      "needs": 1251,
      "##ven": 1252,
      "2002": 1253,
      "##824005": 1254,
      "710824005": 1255,
      "##62c": 1256,
      "out": 1257,
      "row": 1258,
      "spent": 1259,
      "physically": 1260,
      "outpatient": 1261,
      "##ison": 1262,
      "##ional": 1263,
      "##fb2": 1264,
      "##otion": 1265,
      "within": 1266,
      "##raid": 1267,
      "afraid": 1268,
      "##08e": 1269,
      "em": 1270,
      "ju": 1271,
      "night": 1272,
      "safe": 1273,
      "prison": 1274,
      "often": 1275,
      "where": 1276,
      "detention": 1277,
      "currently": 1278,
      "correct": 1279,
      "facility": 1280,
      "jail": 1281,
      "##venile": 1282,
      "##otionally": 1283,
      "emotionally": 1284,
      "juvenile": 1285,
      "nights": 1286,
      "correctional": 1287,
      "##enx": 1288,
      "phenx": 1289,
      "47z": 1290,
      "##alk": 1291,
      "bef": 1292,
      "tax": 1293,
      "talk": 1294,
      "really": 1295,
      "when": 1296,
      "unable": 1297,
      "estimate": 1298,
      "sources": 1299,
      "before": 1300,
      "taxes": 1301,
      "##4b": 1302,
      "##end": 1303,
      "5fb2": 1304,
      "8900": 1305,
      "fb62c": 1306,
      "fb62c08e": 1307,
      "leukocytes": 1308,
      "4005": 1309,
      "human": 1310,
      "40055000": 1311,
      "##8009": 1312,
      "41z": 1313,
      "##idemia": 1314,
      "##athy": 1315,
      "##ty": 1316,
      "##xie": 1317,
      "anxie": 1318,
      "anxiety": 1319,
      "##ug": 1320,
      "use": 1321,
      "58z": 1322,
      "man": 1323,
      "drug": 1324,
      "##fa": 1325,
      "##83": 1326,
      "09z": 1327,
      "never": 1328,
      "43z": 1329,
      "smoked": 1330,
      "36z": 1331,
      "##b3": 1332,
      "insulin": 1333,
      "1964": 1334,
      "##db": 1335,
      "79": 1336,
      "56z": 1337,
      "##abolic": 1338,
      "2376": 1339,
      "metabolic": 1340,
      "##02007": 1341,
      "237602007": 1342,
      "##ck": 1343,
      "04z": 1344,
      "neck": 1345,
      "##dl": 1346,
      "10z": 1347,
      "item": 1348,
      "1991": 1349,
      "hy": 1350,
      "##a5": 1351,
      "103": 1352,
      "706": 1353,
      "02z": 1354,
      "##ilit": 1355,
      "vic": 1356,
      "##tim": 1357,
      "##893006": 1358,
      "intimate": 1359,
      "706893006": 1360,
      "victim": 1361,
      "bc": 1362,
      "times": 1363,
      "2005": 1364,
      "##dy": 1365,
      "per": 1366,
      "##iation": 1367,
      "##os": 1368,
      "##0fe": 1369,
      "##3004": 1370,
      "##a2": 1371,
      "gra": 1372,
      "76": 1373,
      "19z": 1374,
      "phq": 1375,
      "##64": 1376,
      "a1c": 1377,
      "1977": 1378,
      "##b8": 1379,
      "injection": 1380,
      "##1000119108": 1381,
      "##droc": 1382,
      "hydroc": 1383,
      "84": 1384,
      "##ies": 1385,
      "fl": 1386,
      "d0fe": 1387,
      "##087e": 1388,
      "55087e": 1389,
      "bcab": 1390,
      "55087eb9": 1391,
      "49z": 1392,
      "##27": 1393,
      "spec": 1394,
      "consultation": 1395,
      "mor": 1396,
      "vi": 1397,
      "##ip": 1398,
      "##t05": 1399,
      "highest": 1400,
      "2006": 1401,
      "##7f": 1402,
      "##ried": 1403,
      "4282": 1404,
      "worried": 1405,
      "losing": 1406,
      "stay": 1407,
      "many": 1408,
      "staying": 1409,
      "##rain": 1410,
      "##ice": 1411,
      "##439": 1412,
      "br": 1413,
      "##28": 1414,
      "##oph": 1415,
      "post": 1416,
      "mis": 1417,
      "season": 1418,
      "##1007": 1419,
      "##ence": 1420,
      "##olence": 1421,
      "42439": 1422,
      "reports": 1423,
      "violence": 1424,
      "424393004": 1425,
      "loss": 1426,
      "low": 1427,
      "##oose": 1428,
      "##sw": 1429,
      "choose": 1430,
      "answ": 1431,
      "50z": 1432,
      "answer": 1433,
      "03z": 1434,
      "bron": 1435,
      "##chitis": 1436,
      "bronchitis": 1437,
      "ar": 1438,
      "54z": 1439,
      "##mon": 1440,
      "##acer": 1441,
      "sme": 1442,
      "##riage": 1443,
      "##70002": 1444,
      "##all": 1445,
      "##car": 1446,
      "miscar": 1447,
      "miscarriage": 1448,
      "##570002": 1449,
      "caries": 1450,
      "109570002": 1451,
      "##94": 1452,
      "leukocyte": 1453,
      "lacer": 1454,
      "laceration": 1455,
      "1985": 1456,
      "ul": 1457,
      "39z": 1458,
      "112": 1459,
      "specific": 1460,
      "20z": 1461,
      "##58": 1462,
      "##39": 1463,
      "##vity": 1464,
      "esterase": 1465,
      "gravity": 1466,
      "back": 1467,
      "##ph": 1468,
      "##860009": 1469,
      "278860009": 1470,
      "##la": 1471,
      "2008": 1472,
      "##nal": 1473,
      "uns": 1474,
      "##0d": 1475,
      "##ire": 1476,
      "##mat": 1477,
      "##1000124": 1478,
      "##531": 1479,
      "88": 1480,
      "##normal": 1481,
      "##ane": 1482,
      "abnormal": 1483,
      "##own": 1484,
      "##4922": 1485,
      "##earance": 1486,
      "appearance": 1487,
      "##cohol": 1488,
      "alcohol": 1489,
      "me": 1490,
      "over": 1491,
      "##iac": 1492,
      "##arity": 1493,
      "##oudy": 1494,
      "clarity": 1495,
      "cloudy": 1496,
      "##lucent": 1497,
      "ammon": 1498,
      "translucent": 1499,
      "ketone": 1500,
      "brown": 1501,
      "smell": 1502,
      "##iacal": 1503,
      "ammoniacal": 1504,
      "##fact": 1505,
      "##atis": 1506,
      "105531": 1507,
      "unsatis": 1508,
      "##factory": 1509,
      "105531004": 1510,
      "unsatisfactory": 1511,
      "##ars": 1512,
      "##461": 1513,
      "ey": 1514,
      "##100": 1515,
      "eye": 1516,
      "od": 1517,
      "##09002": 1518,
      "odor": 1519,
      "10509002": 1520,
      "29z": 1521,
      "##dose": 1522,
      "##0007": 1523,
      "overdose": 1524,
      "114922": 1525,
      "1149222004": 1526,
      "##42": 1527,
      "renal": 1528,
      "##73": 1529,
      "##7008": 1530,
      "##51": 1531,
      "1999": 1532,
      "hydroch": 1533,
      "##atelet": 1534,
      "platelet": 1535,
      "sup": 1536,
      "27z": 1537,
      "##na": 1538,
      "flu": 1539,
      "##019": 1540,
      "1997": 1541,
      "157": 1542,
      "##314": 1543,
      "##cil": 1544,
      "##oncil": 1545,
      "43019": 1546,
      "reconcil": 1547,
      "430193006": 1548,
      "reconciliation": 1549,
      "124": 1550,
      "106": 1551,
      "##760": 1552,
      "26z": 1553,
      "##a3": 1554,
      "##he": 1555,
      "##arm": 1556,
      "urge": 1557,
      "urgent": 1558,
      "11z": 1559,
      "##141000119108": 1560,
      "proteinuria": 1561,
      "157141000119108": 1562,
      "##1000119107": 1563,
      "1121000119107": 1564,
      "68": 1565,
      "##5c": 1566,
      "32z": 1567,
      "##thr": 1568,
      "##usp": 1569,
      "1987": 1570,
      "##ang": 1571,
      "lang": 1572,
      "2003": 1573,
      "##uage": 1574,
      "language": 1575,
      "cell": 1576,
      "##aking": 1577,
      "##red": 1578,
      "##3461": 1579,
      "##err": 1580,
      "##174": 1581,
      "educated": 1582,
      "473461": 1583,
      "473461003": 1584,
      "##a7": 1585,
      "##pla": 1586,
      "##a8": 1587,
      "questionna": 1588,
      "questionnaire": 1589,
      "118": 1590,
      "fall": 1591,
      "06z": 1592,
      "##fc": 1593,
      "##33": 1594,
      "35z": 1595,
      "##7800": 1596,
      "70": 1597,
      "16174": 1598,
      "161744009": 1599,
      "##72": 1600,
      "23z": 1601,
      "265": 1602,
      "##dc": 1603,
      "##598003": 1604,
      "leaking": 1605,
      "278598003": 1606,
      "##5923": 1607,
      "##stance": 1608,
      "substance": 1609,
      "4405": 1610,
      "4000": 1611,
      "##oet": 1612,
      "205923": 1613,
      "##764009": 1614,
      "1968": 1615,
      "alfa": 1616,
      "epogen": 1617,
      "epoet": 1618,
      "265764009": 1619,
      "epoetin": 1620,
      "##02001": 1621,
      "source": 1622,
      "##11000124": 1623,
      "##triglycer": 1624,
      "3028": 1625,
      "##70006": 1626,
      "hypertriglycer": 1627,
      "428211000124": 1628,
      "44054006": 1629,
      "302870006": 1630,
      "hypertriglyceridemia": 1631,
      "428211000124100": 1632,
      "1979": 1633,
      "99": 1634,
      "visit": 1635,
      "##4004": 1636,
      "##plant": 1637,
      "transplant": 1638,
      "referr": 1639,
      "referral": 1640,
      "##0e": 1641,
      "3732": 1642,
      "37320007": 1643,
      "fract": 1644,
      "17t11": 1645,
      "713": 1646,
      "##ish": 1647,
      "652": 1648,
      "susp": 1649,
      "##iz": 1650,
      "##fer": 1651,
      "##ura": 1652,
      "##d5": 1653,
      "43314": 1654,
      "433144002": 1655,
      "imp": 1656,
      "arm": 1657,
      "8a": 1658,
      "##ged": 1659,
      "farm": 1660,
      "latin": 1661,
      "main": 1662,
      "point": 1663,
      "##lish": 1664,
      "##glish": 1665,
      "prefer": 1666,
      "english": 1667,
      "forces": 1668,
      "discharged": 1669,
      "years": 1670,
      "migrant": 1671,
      "armed": 1672,
      "latino": 1673,
      "preferred": 1674,
      "cells": 1675,
      "12z": 1676,
      "retinop": 1677,
      "retinopathy": 1678,
      "##d3": 1679,
      "aura": 1680,
      "without": 1681,
      "##17100011910": 1682,
      "intract": 1683,
      "migraine": 1684,
      "12417100011910": 1685,
      "intractable": 1686,
      "124171000119105": 1687,
      "09t11": 1688,
      "service": 1689,
      "1981": 1690,
      "depend": 1691,
      "6525002": 1692,
      "dependent": 1693,
      "21t07": 1694,
      "30z": 1695,
      "only": 1696,
      "87": 1697,
      "##pt": 1698,
      "##e9": 1699,
      "##697008": 1700,
      "103697008": 1701,
      "coron": 1702,
      "16t01": 1703,
      "milit": 1704,
      "serving": 1705,
      "##7604002": 1706,
      "1187604002": 1707,
      "military": 1708,
      "16z": 1709,
      "1983": 1710,
      "##ild": 1711,
      "09t01": 1712,
      "22t11": 1713,
      "52z": 1714,
      "child": 1715,
      "##cop": 1716,
      "##5006": 1717,
      "##copy": 1718,
      "##gen": 1719,
      "##16002": 1720,
      "molars": 1721,
      "##acted": 1722,
      "196416002": 1723,
      "impacted": 1724,
      "75": 1725,
      "fluoride": 1726,
      "3404": 1727,
      "34043003": 1728,
      "224295006": 1729,
      "ad": 1730,
      "46z": 1731,
      "##077": 1732,
      "te": 1733,
      "##03c": 1734,
      "622": 1735,
      "##61": 1736,
      "##478": 1737,
      "2253": 1738,
      "##3085": 1739,
      "243085": 1740,
      "243085009": 1741,
      "##561": 1742,
      "##10008": 1743,
      "##0010008": 1744,
      "27478": 1745,
      "gingivae": 1746,
      "##ragingival": 1747,
      "subgingival": 1748,
      "##0009003": 1749,
      "1260010008": 1750,
      "1260009003": 1751,
      "supragingival": 1752,
      "225362009": 1753,
      "274788003": 1754,
      "##b6": 1755,
      "##ative": 1756,
      "sprain": 1757,
      "622b": 1758,
      "7903c": 1759,
      "88bd": 1760,
      "7903c561": 1761,
      "##df": 1762,
      "21t01": 1763,
      "red": 1764,
      "##d8": 1765,
      "##36": 1766,
      "314": 1767,
      "2001": 1768,
      "emer": 1769,
      "##gency": 1770,
      "emergency": 1771,
      "15t01": 1772,
      "##52": 1773,
      "seve": 1774,
      "severe": 1775,
      "04t11": 1776,
      "438": 1777,
      "##one": 1778,
      "21t11": 1779,
      "51z": 1780,
      "##ymat": 1781,
      "##zymat": 1782,
      "enzymat": 1783,
      "enzymatic": 1784,
      "##ale": 1785,
      "13t11": 1786,
      "1988": 1787,
      "##ous": 1788,
      "ass": 1789,
      "##95f": 1790,
      "assay": 1791,
      "##ry": 1792,
      "07t01": 1793,
      "29t11": 1794,
      "4b": 1795,
      "15t11": 1796,
      "##5ff": 1797,
      "##076": 1798,
      "inject": 1799,
      "71084": 1800,
      "8a98": 1801,
      "710841007": 1802,
      "1984": 1803,
      "##125ff": 1804,
      "af95f": 1805,
      "##64125ff": 1806,
      "af95f64125ff": 1807,
      "619": 1808,
      "19t11": 1809,
      "bit": 1810,
      "##7c": 1811,
      "de": 1812,
      "diabet": 1813,
      "diabetic": 1814,
      "##ension": 1815,
      "suspension": 1816,
      "##bb": 1817,
      "d4": 1818,
      "lis": 1819,
      "##ril": 1820,
      "##inopril": 1821,
      "314076": 1822,
      "lisinopril": 1823,
      "##260": 1824,
      "1976": 1825,
      "transplantation": 1826,
      "injectable": 1827,
      "scale": 1828,
      "##wa": 1829,
      "05t01": 1830,
      "10t01": 1831,
      "morse": 1832,
      "intra": 1833,
      "##4c": 1834,
      "##93": 1835,
      "d5": 1836,
      "cir": 1837,
      "10t07": 1838,
      "circ": 1839,
      "##ter": 1840,
      "stre": 1841,
      "regular": 1842,
      "698": 1843,
      "03t11": 1844,
      "isoph": 1845,
      "humulin": 1846,
      "106892": 1847,
      "isophane": 1848,
      "thro": 1849,
      "throat": 1850,
      "##306": 1851,
      "17t07": 1852,
      "18t11": 1853,
      "ery": 1854,
      "##throcyt": 1855,
      "erythrocyt": 1856,
      "##7002": 1857,
      "awa": 1858,
      "##iting": 1859,
      "431857002": 1860,
      "698306": 1861,
      "awaiting": 1862,
      "698306007": 1863,
      "adm": 1864,
      "##ual": 1865,
      "22t07": 1866,
      "15t07": 1867,
      "22t01": 1868,
      "##ution": 1869,
      "##occ": 1870,
      "##ococc": 1871,
      "medicare": 1872,
      "27t11": 1873,
      "##ptococc": 1874,
      "streptococc": 1875,
      "##9e": 1876,
      "hdl": 1877,
      "ldl": 1878,
      "triglycer": 1879,
      "direct": 1880,
      "triglyceride": 1881,
      "##lor": 1882,
      "20t11": 1883,
      "mch": 1884,
      "##2c": 1885,
      "##phth": 1886,
      "1948": 1887,
      "##zide": 1888,
      "##iazide": 1889,
      "##othiazide": 1890,
      "hydrochlor": 1891,
      "hydrochlorothiazide": 1892,
      "3107": 1893,
      "310798": 1894,
      "##55": 1895,
      "09t07": 1896,
      "16t11": 1897,
      "##erative": 1898,
      "sore": 1899,
      "##av": 1900,
      "11t07": 1901,
      "a8": 1902,
      "12t07": 1903,
      "16t07": 1904,
      "06t11": 1905,
      "##398": 1906,
      "##1d": 1907,
      "1967": 1908,
      "##ed69": 1909,
      "dist": 1910,
      "18t01": 1911,
      "##un": 1912,
      "##reat": 1913,
      "11t01": 1914,
      "mean": 1915,
      "##78008": 1916,
      "43878008": 1917,
      "streptococcal": 1918,
      "##idth": 1919,
      "##136": 1920,
      "04t15": 1921,
      "##0c45": 1922,
      "##ized": 1923,
      "##b8ea": 1924,
      "5b8ea": 1925,
      "67f": 1926,
      "14t07": 1927,
      "4b86": 1928,
      "6196": 1929,
      "d44b": 1930,
      "##0c45077": 1931,
      "5b8ea0c45077": 1932,
      "30ed69": 1933,
      "30ed6975": 1934,
      "##e0": 1935,
      "24t11": 1936,
      "308": 1937,
      "ophth": 1938,
      "28t11": 1939,
      "ophthal": 1940,
      "##b7": 1941,
      "08z": 1942,
      "24t01": 1943,
      "##scopy": 1944,
      "##atal": 1945,
      "log": 1946,
      "##mar": 1947,
      "12t11": 1948,
      "logmar": 1949,
      "##cu": 1950,
      "86": 1951,
      "##3b": 1952,
      "31260": 1953,
      "312608009": 1954,
      "##ior": 1955,
      "28t01": 1956,
      "2004": 1957,
      "08t11": 1958,
      "##d1": 1959,
      "##pine": 1960,
      "##reatment": 1961,
      "treatment": 1962,
      "##9a": 1963,
      "##lodi": 1964,
      "amlodi": 1965,
      "308136": 1966,
      "amlodipine": 1967,
      "im": 1968,
      "30t11": 1969,
      "##be": 1970,
      "10t11": 1971,
      "19t07": 1972,
      "12t01": 1973,
      "imm": 1974,
      "##hav": 1975,
      "##inking": 1976,
      "04t01": 1977,
      "behav": 1978,
      "##althy": 1979,
      "unhe": 1980,
      "##81000119105": 1981,
      "drinking": 1982,
      "109398": 1983,
      "behavior": 1984,
      "unhealthy": 1985,
      "10939881000119105": 1986,
      "85": 1987,
      "immun": 1988,
      "##4f": 1989,
      "13t07": 1990,
      "##uation": 1991,
      "##valuation": 1992,
      "coronary": 1993,
      "369": 1994,
      "evaluation": 1995,
      "##usc": 1996,
      "29t07": 1997,
      "##18": 1998,
      "1942": 1999,
      "14t11": 2000,
      "23t01": 2001,
      "##el": 2002,
      "2000": 2003,
      "findings": 2004,
      "26t11": 2005,
      "62": 2006,
      "2007": 2007,
      "04t07": 2008,
      "##holog": 2009,
      "bl": 2010,
      "##rol": 2011,
      "1943": 2012,
      "03t01": 2013,
      "##ssion": 2014,
      "##cussion": 2015,
      "black": 2016,
      "##ft": 2017,
      "##mest": 2018,
      "hr": 2019,
      "infect": 2020,
      "11t11": 2021,
      "left": 2022,
      "1961": 2023,
      "fet": 2024,
      "3685": 2025,
      "##urop": 2026,
      "23t11": 2027,
      "neurop": 2028,
      "##81000119106": 2029,
      "368581000119106": 2030,
      "neuropathy": 2031,
      "##natal": 2032,
      "fracture": 2033,
      "fund": 2034,
      "fe": 2035,
      "right": 2036,
      "##99": 2037,
      "01t01": 2038,
      "07t11": 2039,
      "##9c": 2040,
      "1996": 2041,
      "##895": 2042,
      "27t07": 2043,
      "##26000": 2044,
      "##d5d9": 2045,
      "concussion": 2046,
      "7895": 2047,
      "be61": 2048,
      "a8a5": 2049,
      "7895d5d9": 2050,
      "##ef": 2051,
      "##8006": 2052,
      "ib": 2053,
      "##d7": 2054,
      "ibu": 2055,
      "##bf": 2056,
      "##ded": 2057,
      "##pholog": 2058,
      "28t07": 2059,
      "14t01": 2060,
      "morpholog": 2061,
      "abnormality": 2062,
      "morphologic": 2063,
      "##inic": 2064,
      "clinic": 2065,
      "##gic": 2066,
      "06t01": 2067,
      "1975": 2068,
      "67f0": 2069,
      "##4794": 2070,
      "38ea": 2071,
      "654794": 2072,
      "6547940c": 2073,
      "##stitis": 2074,
      "5582": 2075,
      "##71009": 2076,
      "36971009": 2077,
      "fetal": 2078,
      "cy": 2079,
      "##lip": 2080,
      "3074": 2081,
      "hyperlip": 2082,
      "infective": 2083,
      "55822004": 2084,
      "cystitis": 2085,
      "307426000": 2086,
      "hyperlipidemia": 2087,
      "prenatal": 2088,
      "92": 2089,
      "##1f": 2090,
      "rele": 2091,
      "exten": 2092,
      "release": 2093,
      "extended": 2094,
      "12t15": 2095,
      "##e39": 2096,
      "26t07": 2097,
      "##e7": 2098,
      "priv": 2099,
      "08t01": 2100,
      "private": 2101,
      "##37": 2102,
      "##c4": 2103,
      "##ification": 2104,
      "71": 2105,
      "ant": 2106,
      "##ferase": 2107,
      "##inot": 2108,
      "aminot": 2109,
      "##ransferase": 2110,
      "aminotransferase": 2111,
      "##care": 2112,
      "urgentcare": 2113,
      "13t01": 2114,
      "percent": 2115,
      "25t11": 2116,
      "age": 2117,
      "##34004": 2118,
      "266934004": 2119,
      "percentile": 2120,
      "##e2": 2121,
      "##0a": 2122,
      "2785": 2123,
      "69": 2124,
      "02t11": 2125,
      "##ital": 2126,
      "01t11": 2127,
      "##omy": 2128,
      "08t07": 2129,
      "d517": 2130,
      "02t07": 2131,
      "sur": 2132,
      "104": 2133,
      "c8": 2134,
      "##40": 2135,
      "smoker": 2136,
      "##93000": 2137,
      "##3002": 2138,
      "05t11": 2139,
      "##63": 2140,
      "19t01": 2141,
      "866": 2142,
      "ace": 2143,
      "7629": 2144,
      "acet": 2145,
      "##cess": 2146,
      "96": 2147,
      "762993000": 2148,
      "gad": 2149,
      "##ood": 2150,
      "generalized": 2151,
      "##04006": 2152,
      "##496": 2153,
      "##ission": 2154,
      "03t07": 2155,
      "admission": 2156,
      "##353": 2157,
      "##uity": 2158,
      "##ocular": 2159,
      "acuity": 2160,
      "visual": 2161,
      "intraocular": 2162,
      "bd": 2163,
      "##aminoph": 2164,
      "acetaminoph": 2165,
      "acetaminophen": 2166,
      "1924": 2167,
      "##458007": 2168,
      "access": 2169,
      "713458007": 2170,
      "78": 2171,
      "86614": 2172,
      "domest": 2173,
      "866148006": 2174,
      "domestic": 2175,
      "plain": 2176,
      "ray": 2177,
      "##iferative": 2178,
      "##106006": 2179,
      "713106006": 2180,
      "##af": 2181,
      "d7": 2182,
      "24t07": 2183,
      "##57": 2184,
      "26t01": 2185,
      "25t07": 2186,
      "20t01": 2187,
      "03t15": 2188,
      "27t01": 2189,
      "25t01": 2190,
      "##f8": 2191,
      "ident": 2192,
      "29t01": 2193,
      "##536": 2194,
      "20t07": 2195,
      "30t07": 2196,
      "##f2": 2197,
      "hem": 2198,
      "##rit": 2199,
      "##atoc": 2200,
      "hematoc": 2201,
      "hematocrit": 2202,
      "f2": 2203,
      "##e6": 2204,
      "225": 2205,
      "##a6": 2206,
      "03t02": 2207,
      "##1b": 2208,
      "##osp": 2209,
      "##5007": 2210,
      "##78": 2211,
      "17t01": 2212,
      "93": 2213,
      "##ption": 2214,
      "1958": 2215,
      "12t08": 2216,
      "gel": 2217,
      "0272": 2218,
      "07t07": 2219,
      "15353": 2220,
      "##071007": 2221,
      "68071007": 2222,
      "1535362": 2223,
      "disorders": 2224,
      "##umption": 2225,
      "consumption": 2226,
      "7633": 2227,
      "identification": 2228,
      "763302001": 2229,
      "90": 2230,
      "##ectomy": 2231,
      "94": 2232,
      "##11": 2233,
      "18t15": 2234,
      "brain": 2235,
      "hosp": 2236,
      "##f4": 2237,
      "##e3": 2238,
      "##itt": 2239,
      "15t15": 2240,
      "06t07": 2241,
      "##ian": 2242,
      "29t08": 2243,
      "##e8": 2244,
      "litt": 2245,
      "3847": 2246,
      "##erial": 2247,
      "bite": 2248,
      "##wing": 2249,
      "20t15": 2250,
      "31t01": 2251,
      "2410": 2252,
      "##46008": 2253,
      "bitewing": 2254,
      "241046008": 2255,
      "23t07": 2256,
      "d85": 2257,
      "1973": 2258,
      "##60": 2259,
      "2748": 2260,
      "ausc": 2261,
      "uter": 2262,
      "30t01": 2263,
      "##158009": 2264,
      "fundal": 2265,
      "225158009": 2266,
      "little": 2267,
      "274804006": 2268,
      "auscultation": 2269,
      "uterine": 2270,
      "##09000": 2271,
      "##1773": 2272,
      "384709000": 2273,
      "26t15": 2274,
      "253b": 2275,
      "##e391773": 2276,
      "d85e391773": 2277,
      "d85e39177398": 2278,
      "##ging": 2279,
      "diagnost": 2280,
      "diagnostic": 2281,
      "ima": 2282,
      "imaging": 2283,
      "##4531": 2284,
      "17t12": 2285,
      "274531": 2286,
      "##ulat": 2287,
      "circulat": 2288,
      "274531002": 2289,
      "occ": 2290,
      "hydrochloride": 2291,
      "81": 2292,
      "83": 2293,
      "6c": 2294,
      "ca": 2295,
      "##ome": 2296,
      "f7": 2297,
      "##45008": 2298,
      "e0c": 2299,
      "ost": 2300,
      "##and": 2301,
      "oste": 2302,
      "tor": 2303,
      "##50": 2304,
      "##4545008": 2305,
      "##emic": 2306,
      "##chemic": 2307,
      "ischemic": 2308,
      "414545008": 2309,
      "torus": 2310,
      "c3": 2311,
      "22t08": 2312,
      "sol": 2313,
      "##0002": 2314,
      "solution": 2315,
      "117": 2316,
      "18t07": 2317,
      "142": 2318,
      "asian": 2319,
      "##35": 2320,
      "##c74": 2321,
      "##b2": 2322,
      "##thma": 2323,
      "21t08": 2324,
      "asthma": 2325,
      "##0005": 2326,
      "05t07": 2327,
      "17t08": 2328,
      "unit": 2329,
      "recurrent": 2330,
      "actu": 2331,
      "##f6": 2332,
      "11t12": 2333,
      "temp": 2334,
      "##cut": 2335,
      "##ard": 2336,
      "269": 2337,
      "141": 2338,
      "##aneous": 2339,
      "##cutaneous": 2340,
      "mc": 2341,
      "##3c": 2342,
      "##hab": 2343,
      "rehab": 2344,
      "##ilitation": 2345,
      "rehabilitation": 2346,
      "pg": 2347,
      "##1a": 2348,
      "##454": 2349,
      "fraction": 2350,
      "e4": 2351,
      "subcutaneous": 2352,
      "##67": 2353,
      "18t12": 2354,
      "138": 2355,
      "26t08": 2356,
      "aller": 2357,
      "erythrocytes": 2358,
      "rh": 2359,
      "apt": 2360,
      "##otherapy": 2361,
      "##db5": 2362,
      "102": 2363,
      "##hal": 2364,
      "inhal": 2365,
      "colon": 2366,
      "c5": 2367,
      "13t12": 2368,
      "##opic": 2369,
      "6536": 2370,
      "ot": 2371,
      "media": 2372,
      "allergic": 2373,
      "65363002": 2374,
      "otitis": 2375,
      "pal": 2376,
      "01t07": 2377,
      "observable": 2378,
      "entity": 2379,
      "##atinus": 2380,
      "02t01": 2381,
      "palatinus": 2382,
      "##zhe": 2383,
      "##odone": 2384,
      "##imer": 2385,
      "alzhe": 2386,
      "actuat": 2387,
      "alzheimer": 2388,
      "108": 2389,
      "110": 2390,
      "##54": 2391,
      "##e4": 2392,
      "11t15": 2393,
      "29t12": 2394,
      "f4": 2395,
      "09t12": 2396,
      "137": 2397,
      "4675": 2398,
      "mcv": 2399,
      "46752004": 2400,
      "mchc": 2401,
      "rhin": 2402,
      "der": 2403,
      "##width": 2404,
      "399": 2405,
      "##matitis": 2406,
      "platelets": 2407,
      "erythrocyte": 2408,
      "distwidth": 2409,
      "dermatitis": 2410,
      "##e62": 2411,
      "stu": 2412,
      "16t12": 2413,
      "##56009": 2414,
      "107": 2415,
      "rhinitis": 2416,
      "ro": 2417,
      "1802": 2418,
      "##488": 2419,
      "05t17": 2420,
      "immunotherapy": 2421,
      "180256009": 2422,
      "95": 2423,
      "##b36": 2424,
      "lig": 2425,
      "398": 2426,
      "b9e": 2427,
      "fron": 2428,
      "31t11": 2429,
      "136": 2430,
      "22t12": 2431,
      "143": 2432,
      "##f9": 2433,
      "10t08": 2434,
      "2336": 2435,
      "d70d": 2436,
      "101": 2437,
      "##40030": 2438,
      "14t12": 2439,
      "b9e40030": 2440,
      "##44": 2441,
      "##nial": 2442,
      "##hood": 2443,
      "09t02": 2444,
      "peren": 2445,
      "##155": 2446,
      "##78006": 2447,
      "childhood": 2448,
      "233678006": 2449,
      "perennial": 2450,
      "oth": 2451,
      "var": 2452,
      "20t12": 2453,
      "other": 2454,
      "tra": 2455,
      "009": 2456,
      "b2": 2457,
      "30t08": 2458,
      "head": 2459,
      "cause": 2460,
      "##70": 2461,
      "5205": 2462,
      "52052004": 2463,
      "7b36": 2464,
      "140": 2465,
      "##d81d": 2466,
      "##2c155": 2467,
      "009d81d": 2468,
      "009d81d2c155": 2469,
      "##mic": 2470,
      "ophthalmic": 2471,
      "append": 2472,
      "80": 2473,
      "##inary": 2474,
      "##moscopy": 2475,
      "ophthalmoscopy": 2476,
      "##rof": 2477,
      "##oar": 2478,
      "##ication": 2479,
      "##umference": 2480,
      "##27001": 2481,
      "##ipital": 2482,
      "##thritis": 2483,
      "circumference": 2484,
      "occipital": 2485,
      "osteoar": 2486,
      "frontal": 2487,
      "osteoarthritis": 2488,
      "d3": 2489,
      "my": 2490,
      "tract": 2491,
      "11003": 2492,
      "urinary": 2493,
      "197927001": 2494,
      "room": 2495,
      "110030002": 2496,
      "139": 2497,
      "77": 2498,
      "width": 2499,
      "##ribution": 2500,
      "distribution": 2501,
      "##29004": 2502,
      "26929004": 2503,
      "e7": 2504,
      "25t15": 2505,
      "caused": 2506,
      "##51008": 2507,
      "63": 2508,
      "##d2": 2509,
      "##lication": 2510,
      "09t08": 2511,
      "09t15": 2512,
      "tu": 2513,
      "##ff": 2514,
      "82": 2515,
      "03t12": 2516,
      "11t02": 2517,
      "07t16": 2518,
      "98": 2519,
      "aort": 2520,
      "har": 2521,
      "##c7": 2522,
      "##244": 2523,
      "aortic": 2524,
      "1b9": 2525,
      "##c0": 2526,
      "##virus": 2527,
      "##a4": 2528,
      "155": 2529,
      "##5300": 2530,
      "##a9": 2531,
      "##e1": 2532,
      "20t02": 2533,
      "16t08": 2534,
      "##prof": 2535,
      "12t14": 2536,
      "18t02": 2537,
      "ibuprof": 2538,
      "hospice": 2539,
      "ibuprofen": 2540,
      "less": 2541,
      "##8e": 2542,
      "16t15": 2543,
      "valve": 2544,
      "30t15": 2545,
      "b5": 2546,
      "##bc": 2547,
      "05t12": 2548,
      "bact": 2549,
      "op": 2550,
      "267": 2551,
      "##49d": 2552,
      "815": 2553,
      "##avirus": 2554,
      "##kle": 2555,
      "medica": 2556,
      "ankle": 2557,
      "15t02": 2558,
      "seasonal": 2559,
      "##a3c": 2560,
      "coronavirus": 2561,
      "c2": 2562,
      "##2b6": 2563,
      "28t12": 2564,
      "500": 2565,
      "##las": 2566,
      "06t13": 2567,
      "13t08": 2568,
      "com": 2569,
      "11t08": 2570,
      "pol": 2571,
      "##ious": 2572,
      "06t08": 2573,
      "169": 2574,
      "14t02": 2575,
      "##cc9": 2576,
      "428251008": 2577,
      "appendectomy": 2578,
      "polyp": 2579,
      "91": 2580,
      "##87": 2581,
      "27t12": 2582,
      "ii": 2583,
      "sle": 2584,
      "tac": 2585,
      "##imus": 2586,
      "##rolimus": 2587,
      "sleep": 2588,
      "tacrolimus": 2589,
      "kne": 2590,
      "##8f": 2591,
      "##b5": 2592,
      "2323": 2593,
      "4446": 2594,
      "variation": 2595,
      "##53008": 2596,
      "knee": 2597,
      "232353008": 2598,
      "f3": 2599,
      "##20": 2600,
      "##ba": 2601,
      "##0c8": 2602,
      "##ccf": 2603,
      "hark": 2604,
      "44465007": 2605,
      "##prol": 2606,
      "nonprol": 2607,
      "1551000119108": 2608,
      "nonproliferative": 2609,
      "08t08": 2610,
      "37d3": 2611,
      "##eef": 2612,
      "##a2bb": 2613,
      "1969": 2614,
      "29t15": 2615,
      "##a816": 2616,
      "b204": 2617,
      "hand": 2618,
      "some": 2619,
      "815b": 2620,
      "##a2bba816": 2621,
      "b204a2bba816": 2622,
      "##wh": 2623,
      "01t02": 2624,
      "24t14": 2625,
      "somewh": 2626,
      "somewhat": 2627,
      "##ina": 2628,
      "1946": 2629,
      "07t08": 2630,
      "retina": 2631,
      "d13": 2632,
      "##666": 2633,
      "300": 2634,
      "##plo": 2635,
      "12t12": 2636,
      "26t02": 2637,
      "044b": 2638,
      "24t08": 2639,
      "23t08": 2640,
      "##69db": 2641,
      "fb5": 2642,
      "87d4": 2643,
      "fe69db": 2644,
      "fe69dbde": 2645,
      "06t09": 2646,
      "27t08": 2647,
      "##104": 2648,
      "##bd3": 2649,
      "##84c": 2650,
      "385": 2651,
      "b8": 2652,
      "tr": 2653,
      "phos": 2654,
      "##564": 2655,
      "54d1": 2656,
      "##2440c8": 2657,
      "d132440c8": 2658,
      "phosph": 2659,
      "d132440c8cc9": 2660,
      "##f0": 2661,
      "##e27": 2662,
      "20t08": 2663,
      "26t13": 2664,
      "1256": 2665,
      "13t18": 2666,
      "23t12": 2667,
      "252": 2668,
      "ac666": 2669,
      "##58000": 2670,
      "87b3": 2671,
      "e0c1": 2672,
      "ac666eef": 2673,
      "02t08": 2674,
      "lost": 2675,
      "##035": 2676,
      "##f3e0": 2677,
      "arter": 2678,
      "278558000": 2679,
      "c302": 2680,
      "dast": 2681,
      "##kal": 2682,
      "##atase": 2683,
      "1951": 2684,
      "##6906": 2685,
      "##56f3e0": 2686,
      "##761": 2687,
      "albumin": 2688,
      "alkal": 2689,
      "4556f3e0": 2690,
      "f7d4": 2691,
      "phosphatase": 2692,
      "alkaline": 2693,
      "18t08": 2694,
      "application": 2695,
      "6b9": 2696,
      "97": 2697,
      "##part": 2698,
      "##anine": 2699,
      "17t14": 2700,
      "aspart": 2701,
      "##763009": 2702,
      "alanine": 2703,
      "385763009": 2704,
      "aspartate": 2705,
      "06t12": 2706,
      "2786": 2707,
      "1971": 2708,
      "loose": 2709,
      "278602001": 2710,
      "##ib": 2711,
      "21t12": 2712,
      "##dee7": 2713,
      "##ction": 2714,
      "calculation": 2715,
      "6564": 2716,
      "cbd3": 2717,
      "c84c": 2718,
      "02t02": 2719,
      "31b7": 2720,
      "18t16": 2721,
      "##49035": 2722,
      "##463": 2723,
      "5840": 2724,
      "##058": 2725,
      "6b949035": 2726,
      "6564dee7": 2727,
      "4104": 2728,
      "##fce": 2729,
      "##6c": 2730,
      "##8a": 2731,
      "##veill": 2732,
      "##020005": 2733,
      "surveill": 2734,
      "c80e": 2735,
      "ligation": 2736,
      "tubal": 2737,
      "267020005": 2738,
      "surveillance": 2739,
      "400": 2740,
      "nur": 2741,
      "##ple": 2742,
      "##mentary": 2743,
      "1966": 2744,
      "##01003": 2745,
      "48c74": 2746,
      "supple": 2747,
      "bd62": 2748,
      "410401003": 2749,
      "nursing": 2750,
      "48c74e27": 2751,
      "supplementary": 2752,
      "386": 2753,
      "##edic": 2754,
      "##e9f": 2755,
      "burn": 2756,
      "##b38": 2757,
      "##dd8": 2758,
      "2069": 2759,
      "10t02": 2760,
      "02t12": 2761,
      "04t08": 2762,
      "14t14": 2763,
      "15t14": 2764,
      "913": 2765,
      "##b4": 2766,
      "##orary": 2767,
      "24t02": 2768,
      "14t08": 2769,
      "audit": 2770,
      "temporary": 2771,
      "206905": 2772,
      "1c": 2773,
      "f1": 2774,
      "13t02": 2775,
      "##form": 2776,
      "02t18": 2777,
      "11t13": 2778,
      "##0975": 2779,
      "metform": 2780,
      "860975": 2781,
      "metformin": 2782,
      "##88009": 2783,
      "1664": 2784,
      "##ioid": 2785,
      "##lemedic": 2786,
      "telemedic": 2787,
      "fractured": 2788,
      "278588009": 2789,
      "opioid": 2790,
      "telemedicine": 2791,
      "01t15": 2792,
      "##urg": 2793,
      "325": 2794,
      "8058": 2795,
      "03t08": 2796,
      "05t15": 2797,
      "22t09": 2798,
      "29t18": 2799,
      "##1ca": 2800,
      "panic": 2801,
      "##vars": 2802,
      "##atic": 2803,
      "1953": 2804,
      "envars": 2805,
      "17t02": 2806,
      "17t09": 2807,
      "1664463": 2808,
      "80583007": 2809,
      "envarsus": 2810,
      "c9": 2811,
      "1949": 2812,
      "0bd": 2813,
      "16t16": 2814,
      "7562": 2815,
      "c5dd8": 2816,
      "1b9c": 2817,
      "c5dd81ca": 2818,
      "67": 2819,
      "01t19": 2820,
      "07t09": 2821,
      "8c": 2822,
      "##d6": 2823,
      "07t02": 2824,
      "consc": 2825,
      "##igen": 2826,
      "##bulin": 2827,
      "globulin": 2828,
      "7549": 2829,
      "antigen": 2830,
      "##iousness": 2831,
      "consciousness": 2832,
      "06t15": 2833,
      "23t13": 2834,
      "15t12": 2835,
      "##oscopy": 2836,
      "f2dd": 2837,
      "bacterial": 2838,
      "75498004": 2839,
      "fe9f": 2840,
      "14t13": 2841,
      "68496": 2842,
      "##b38c0": 2843,
      "0bdb38c0": 2844,
      "68496003": 2845,
      "co": 2846,
      "##5a": 2847,
      "10t12": 2848,
      "15t08": 2849,
      "ff": 2850,
      "pers": 2851,
      "12t09": 2852,
      "study": 2853,
      "100": 2854,
      "##0f3": 2855,
      "19t12": 2856,
      "23t02": 2857,
      "##079": 2858,
      "1972": 2859,
      "64": 2860,
      "bone": 2861,
      "08t12": 2862,
      "27t19": 2863,
      "25t12": 2864,
      "25t19": 2865,
      "##5f2b6": 2866,
      "8403": 2867,
      "fb55f2b6": 2868,
      "0b": 2869,
      "##inist": 2870,
      "04t14": 2871,
      "04t13": 2872,
      "24t19": 2873,
      "##nea": 2874,
      "administ": 2875,
      "comp": 2876,
      "administration": 2877,
      "ged": 2878,
      "##3a": 2879,
      "##c2": 2880,
      "##rate": 2881,
      "11t14": 2882,
      "05t13": 2883,
      "diplo": 2884,
      "31t15": 2885,
      "##artrate": 2886,
      "24t00": 2887,
      "##044": 2888,
      "hydrocodone": 2889,
      "bitartrate": 2890,
      "##9a0": 2891,
      "diploma": 2892,
      "19t15": 2893,
      "10t19": 2894,
      "04t17": 2895,
      "21t18": 2896,
      "##c8": 2897,
      "05t18": 2898,
      "01t08": 2899,
      "31t08": 2900,
      "18t18": 2901,
      "21t02": 2902,
      "3a3c": 2903,
      "d9a0": 2904,
      "e6": 2905,
      "10t00": 2906,
      "10t17": 2907,
      "##fc60": 2908,
      "f3b9": 2909,
      "3a3cfc60": 2910,
      "1b": 2911,
      "b3": 2912,
      "01t09": 2913,
      "18t19": 2914,
      "17t15": 2915,
      "24t12": 2916,
      "25t02": 2917,
      "inhalation": 2918,
      "4f": 2919,
      "20t06": 2920,
      "##erm": 2921,
      "##umatic": 2922,
      "16t02": 2923,
      "171": 2924,
      "##acc": 2925,
      "4732": 2926,
      "##f7": 2927,
      "02t19": 2928,
      "21t10": 2929,
      "e9": 2930,
      "23t09": 2931,
      "physical": 2932,
      "##ound": 2933,
      "08t02": 2934,
      "17t13": 2935,
      "26t12": 2936,
      "ox": 2937,
      "18t14": 2938,
      "23t06": 2939,
      "04t12": 2940,
      "##6987": 2941,
      "##665": 2942,
      "##053": 2943,
      "02t20": 2944,
      "##3814": 2945,
      "856987": 2946,
      "803": 2947,
      "gon": 2948,
      "##1008": 2949,
      "13t17": 2950,
      "30t09": 2951,
      "##a2c": 2952,
      "9044": 2953,
      "d2": 2954,
      "05t14": 2955,
      "01t13": 2956,
      "13t19": 2957,
      "23t15": 2958,
      "ab0a": 2959,
      "acid": 2960,
      "alend": 2961,
      "39df": 2962,
      "844f": 2963,
      "##dc2": 2964,
      "904419": 2965,
      "alendronic": 2966,
      "844f3814": 2967,
      "12t02": 2968,
      "18t10": 2969,
      "22t13": 2970,
      "44665": 2971,
      "##2676": 2972,
      "##82d3": 2973,
      "fb8e": 2974,
      "person": 2975,
      "446654005": 2976,
      "##727": 2977,
      "##ade": 2978,
      "##mia": 2979,
      "##cemia": 2980,
      "07t15": 2981,
      "hypergly": 2982,
      "65db": 2983,
      "##94007": 2984,
      "units": 2985,
      "473282d3": 2986,
      "80394007": 2987,
      "hyperglycemia": 2988,
      "##453": 2989,
      "25t14": 2990,
      "##b53": 2991,
      "06t02": 2992,
      "25t08": 2993,
      "6256": 2994,
      "20t13": 2995,
      "04t19": 2996,
      "08t18": 2997,
      "apnea": 2998,
      "62564004": 2999,
      "vacc": 3000,
      "prod": 3001,
      "##4008": 3002,
      "30t14": 3003,
      "25t06": 3004,
      "suite": 3005,
      "##532": 3006,
      "vaccine": 3007,
      "produ": 3008,
      "03t14": 3009,
      "13t06": 3010,
      "25t16": 3011,
      "24079": 3012,
      "##operative": 3013,
      "atopic": 3014,
      "24079001": 3015,
      "##138": 3016,
      "28t15": 3017,
      "##a5e": 3018,
      "artery": 3019,
      "##34": 3020,
      "##047": 3021,
      "03t00": 3022,
      "07t17": 3023,
      "26t16": 3024,
      "##14f": 3025,
      "postoperative": 3026,
      "766": 3027,
      "c43": 3028,
      "09t14": 3029,
      "09t13": 3030,
      "06t14": 3031,
      "24t20": 3032,
      "##96": 3033,
      "02t15": 3034,
      "27t18": 3035,
      "456": 3036,
      "609": 3037,
      "30t12": 3038,
      "##d0": 3039,
      "19t17": 3040,
      "10t15": 3041,
      "03t13": 3042,
      "05t16": 3043,
      "13t16": 3044,
      "##state": 3045,
      "##388": 3046,
      "##054": 3047,
      "prostate": 3048,
      "##osis": 3049,
      "oxy": 3050,
      "2d": 3051,
      "52676": 3052,
      "##c5": 3053,
      "03t17": 3054,
      "06t10": 3055,
      "17t06": 3056,
      "2398": 3057,
      "##621": 3058,
      "0077": 3059,
      "814": 3060,
      "8a2c": 3061,
      "21t09": 3062,
      "##86e": 3063,
      "##bd496": 3064,
      "c43bd496": 3065,
      "d8": 3066,
      "ku": 3067,
      "mat": 3068,
      "mod": 3069,
      "10t14": 3070,
      "05t00": 3071,
      "##dda": 3072,
      "84054": 3073,
      "suspected": 3074,
      "material": 3075,
      "840544004": 3076,
      "2db5": 3077,
      "e2": 3078,
      "##musc": 3079,
      "##oliferative": 3080,
      "proliferative": 3081,
      "09t09": 3082,
      "25t09": 3083,
      "##01001": 3084,
      "##a7d": 3085,
      "##a80": 3086,
      "intramusc": 3087,
      "d5e3": 3088,
      "##b53c4": 3089,
      "76601001": 3090,
      "814b53c4": 3091,
      "intramuscular": 3092,
      "##65": 3093,
      "##0f": 3094,
      "##pass": 3095,
      "02t16": 3096,
      "11t16": 3097,
      "08t19": 3098,
      "28t14": 3099,
      "bypass": 3100,
      "24t15": 3101,
      "ige": 3102,
      "oct": 3103,
      "06t04": 3104,
      "17t19": 3105,
      "27t09": 3106,
      "26t18": 3107,
      "##fea": 3108,
      "##gical": 3109,
      "surgical": 3110,
      "117621": 3111,
      "7cc": 3112,
      "##fting": 3113,
      "##kin": 3114,
      "10t13": 3115,
      "21t19": 3116,
      "22t00": 3117,
      "grafting": 3118,
      "0e62": 3119,
      "414f": 3120,
      "8a5e": 3121,
      "f5f": 3122,
      "1417": 3123,
      "##316": 3124,
      "32047": 3125,
      "##b6d1": 3126,
      "d3b3": 3127,
      "1417b6d1": 3128,
      "3204786e": 3129,
      "##sis": 3130,
      "11t18": 3131,
      "11d9": 3132,
      "09t18": 3133,
      "09t00": 3134,
      "01t12": 3135,
      "04t02": 3136,
      "08t13": 3137,
      "2845": 3138,
      "1965": 3139,
      "##d449": 3140,
      "602": 3141,
      "b761": 3142,
      "e388": 3143,
      "wall": 3144,
      "##79": 3145,
      "##arction": 3146,
      "19t02": 3147,
      "11t03": 3148,
      "22t22": 3149,
      "##261000": 3150,
      "teen": 3151,
      "##999": 3152,
      "399261000": 3153,
      "##6906f": 3154,
      "f1d449": 3155,
      "b3bd": 3156,
      "7cc6906f": 3157,
      "f1d449d4": 3158,
      "7532": 3159,
      "##48009": 3160,
      "##159": 3161,
      "##but": 3162,
      "120": 3163,
      "12t19": 3164,
      "06t19": 3165,
      "whip": 3166,
      "##127": 3167,
      "albut": 3168,
      "##460009": 3169,
      "90460009": 3170,
      "39848009": 3171,
      "##lash": 3172,
      "whiplash": 3173,
      "albuterol": 3174,
      "0c": 3175,
      "6a7d": 3176,
      "##sit": 3177,
      "17t10": 3178,
      "21t15": 3179,
      "30t13": 3180,
      "##101": 3181,
      "##7ffea": 3182,
      "f5f7ffea": 3183,
      "skin": 3184,
      "19t06": 3185,
      "31t14": 3186,
      "22t16": 3187,
      "##279": 3188,
      "389": 3189,
      "db": 3190,
      "02t17": 3191,
      "31t07": 3192,
      "16t19": 3193,
      "27t13": 3194,
      "26t19": 3195,
      "26t21": 3196,
      "##3aae": 3197,
      "bade": 3198,
      "cam": 3199,
      "fd": 3200,
      "19t16": 3201,
      "01t14": 3202,
      "313": 3203,
      "##a370": 3204,
      "99b3": 3205,
      "d999": 3206,
      "##cular": 3207,
      "1962": 3208,
      "01t10": 3209,
      "183aae": 3210,
      "##ograph": 3211,
      "23t14": 3212,
      "537c": 3213,
      "d517a370": 3214,
      "183aae24": 3215,
      "##ography": 3216,
      "##sk": 3217,
      "28t02": 3218,
      "##ski": 3219,
      "17t04": 3220,
      "13t13": 3221,
      "testing": 3222,
      "449": 3223,
      "##48a": 3224,
      "##537": 3225,
      "##d4c": 3226,
      "fdda": 3227,
      "##amp": 3228,
      "2037": 3229,
      "08t14": 3230,
      "165": 3231,
      "##abdb5": 3232,
      "29t16": 3233,
      "29t04": 3234,
      "##diol": 3235,
      "##4bf": 3236,
      "e95c": 3237,
      "2037abdb5": 3238,
      "2037abdb5a80": 3239,
      "5f0": 3240,
      "##erate": 3241,
      "ind": 3242,
      "02t10": 3243,
      "06t18": 3244,
      "07t13": 3245,
      "175": 3246,
      "30t02": 3247,
      "##063": 3248,
      "##740": 3249,
      "7971": 3250,
      "##b80f3": 3251,
      "##0e5": 3252,
      "5f0b80f3": 3253,
      "gul": 3254,
      "##216": 3255,
      "##gow": 3256,
      "once": 3257,
      "05t02": 3258,
      "01t06": 3259,
      "16t14": 3260,
      "29t10": 3261,
      "37e6": 3262,
      "##152": 3263,
      "##d959": 3264,
      "##521": 3265,
      "##7c9": 3266,
      "gulgow": 3267,
      "gulgowski": 3268,
      "8173": 3269,
      "94bf": 3270,
      "##aa": 3271,
      "indi": 3272,
      "19t18": 3273,
      "05t19": 3274,
      "28t00": 3275,
      "07t12": 3276,
      "##3005": 3277,
      "25t18": 3278,
      "##191000124": 3279,
      "edd959": 3280,
      "58be": 3281,
      "f4159": 3282,
      "e707": 3283,
      "1bfc": 3284,
      "456191000124": 3285,
      "81733005": 3286,
      "edd959a2": 3287,
      "f4159279": 3288,
      "456191000124101": 3289,
      "a537": 3290,
      "##ocard": 3291,
      "02t13": 3292,
      "07t19": 3293,
      "18t00": 3294,
      "26t14": 3295,
      "25t10": 3296,
      "##feb": 3297,
      "##ee6": 3298,
      "infarction": 3299,
      "myocard": 3300,
      "myocardial": 3301,
      "95c": 3302,
      "9488": 3303,
      "b48a": 3304,
      "1683": 3305,
      "##62760": 3306,
      "retinal": 3307,
      "##4971": 3308,
      "microscopy": 3309,
      "96740": 3310,
      "95c62760": 3311,
      "9674049d": 3312,
      "lamp": 3313,
      "ocular": 3314,
      "sl": 3315,
      "##era": 3316,
      "09t17": 3317,
      "314971": 3318,
      "26t00": 3319,
      "14t15": 3320,
      "29t00": 3321,
      "##amide": 3322,
      "exam": 3323,
      "5546": 3324,
      "72216": 3325,
      "##ioscopy": 3326,
      "##153003": 3327,
      "##832004": 3328,
      "fundoscopy": 3329,
      "##opicamide": 3330,
      "tropicamide": 3331,
      "252832004": 3332,
      "gonioscopy": 3333,
      "389153003": 3334,
      "camera": 3335,
      "313521": 3336,
      "indirect": 3337,
      "16830007": 3338,
      "slit": 3339,
      "314971001": 3340,
      "55468007": 3341,
      "722161008": 3342,
      "len": 3343,
      "##gth": 3344,
      "27t02": 3345,
      "##sensit": 3346,
      "3802001": 3347,
      "##izing": 3348,
      "desensit": 3349,
      "##f2db": 3350,
      "medicament": 3351,
      "length": 3352,
      "desensitizing": 3353,
      "9c": 3354,
      "##091": 3355,
      "29t02": 3356,
      "be76": 3357,
      "56ee": 3358,
      "##a375": 3359,
      "b0e5": 3360,
      "fd4c": 3361,
      "##885": 3362,
      "10t09": 3363,
      "23t00": 3364,
      "15t09": 3365,
      "##19a375": 3366,
      "402": 3367,
      "##dfed": 3368,
      "6919a375": 3369,
      "8c55": 3370,
      "56eef2db": 3371,
      "d9": 3372,
      "10t23": 3373,
      "11t04": 3374,
      "05t09": 3375,
      "22t17": 3376,
      "##radiol": 3377,
      "370": 3378,
      "estradiol": 3379,
      "2dc2": 3380,
      "mental": 3381,
      "wr": 3382,
      "medicine": 3383,
      "08t10": 3384,
      "08t06": 3385,
      "31138": 3386,
      "16t00": 3387,
      "29t19": 3388,
      "vision": 3389,
      "##0d0": 3390,
      "c809": 3391,
      "wrist": 3392,
      "31138316": 3393,
      "7152": 3394,
      "nine": 3395,
      "##ca": 3396,
      "11t19": 3397,
      "28t16": 3398,
      "16t13": 3399,
      "active": 3400,
      "##a5ec": 3401,
      "##52007": 3402,
      "immunity": 3403,
      "e4ae": 3404,
      "produce": 3405,
      "715252007": 3406,
      "1a": 3407,
      "926": 3408,
      "9a5ec": 3409,
      "##ices": 3410,
      "06t06": 3411,
      "21t23": 3412,
      "29t09": 3413,
      "658f": 3414,
      "f21c": 3415,
      "trace": 3416,
      "9a5ecccf": 3417,
      "##5b": 3418,
      "05t08": 3419,
      "27t20": 3420,
      "27t21": 3421,
      "##5c5": 3422,
      "cou": 3423,
      "c59": 3424,
      "c0d0": 3425,
      "food": 3426,
      "ffeb": 3427,
      "31t09": 3428,
      "13t09": 3429,
      "##89063": 3430,
      "##8512": 3431,
      "##49007": 3432,
      "284549007": 3433,
      "92689063": 3434,
      "##ese": 3435,
      "##uen": 3436,
      "12t06": 3437,
      "17t16": 3438,
      "23t16": 3439,
      "obese": 3440,
      "408512": 3441,
      "##75004": 3442,
      "severely": 3443,
      "40275004": 3444,
      "408512008": 3445,
      "e9c": 3446,
      "sim": 3447,
      "##c9": 3448,
      "##yl": 3449,
      "init": 3450,
      "02t14": 3451,
      "11t00": 3452,
      "09t19": 3453,
      "22t10": 3454,
      "22t04": 3455,
      "30t00": 3456,
      "29t14": 3457,
      "29t03": 3458,
      "smokes": 3459,
      "60": 3460,
      "##5e": 3461,
      "##0d9": 3462,
      "20t09": 3463,
      "10t18": 3464,
      "28t13": 3465,
      "22t19": 3466,
      "24t09": 3467,
      "24t18": 3468,
      "##ella": 3469,
      "02t21": 3470,
      "12t18": 3471,
      "28t19": 3472,
      "07t21": 3473,
      "22t20": 3474,
      "24t17": 3475,
      "##ac8": 3476,
      "##661": 3477,
      "e9c1": 3478,
      "a35": 3479,
      "ec": 3480,
      "##fb9": 3481,
      "##da": 3482,
      "11t09": 3483,
      "16t10": 3484,
      "18t09": 3485,
      "27t10": 3486,
      "22t18": 3487,
      "##247008": 3488,
      "##dd4": 3489,
      "facial": 3490,
      "370247008": 3491,
      "2e": 3492,
      "9ea": 3493,
      "loc": 3494,
      "19t10": 3495,
      "123": 3496,
      "17t03": 3497,
      "24t06": 3498,
      "24t21": 3499,
      "##868002": 3500,
      "##468": 3501,
      "##d94": 3502,
      "449868002": 3503,
      "b9": 3504,
      "pow": 3505,
      "wound": 3506,
      "##2b": 3507,
      "##ionate": 3508,
      "03t18": 3509,
      "12t10": 3510,
      "25t13": 3511,
      "14t06": 3512,
      "##asone": 3513,
      "##89c": 3514,
      "##opionate": 3515,
      "inhaler": 3516,
      "1d": 3517,
      "20t10": 3518,
      "##0000": 3519,
      "19t13": 3520,
      "17t20": 3521,
      "22t15": 3522,
      "24t16": 3523,
      "14t04": 3524,
      "cult": 3525,
      "##b72": 3526,
      "01t20": 3527,
      "08t00": 3528,
      "27t06": 3529,
      "##imen": 3530,
      "##625": 3531,
      "##057": 3532,
      "specimen": 3533,
      "culture": 3534,
      "707": 3535,
      "##fd": 3536,
      "##cf3": 3537,
      "08t09": 3538,
      "13t14": 3539,
      "##04007": 3540,
      "##d5b9": 3541,
      "fever": 3542,
      "386661": 3543,
      "386661006": 3544,
      "##1e": 3545,
      "##gre": 3546,
      "20t14": 3547,
      "19t19": 3548,
      "090d9": 3549,
      "12t16": 3550,
      "bd63": 3551,
      "##ermal": 3552,
      "##d5b9dd4": 3553,
      "090d9d5b9dd4": 3554,
      "7c": 3555,
      "e8": 3556,
      "31t19": 3557,
      "##arent": 3558,
      "21t06": 3559,
      "22t21": 3560,
      "23t23": 3561,
      "23t05": 3562,
      "apparent": 3563,
      "epid": 3564,
      "antib": 3565,
      "medicaid": 3566,
      "b884": 3567,
      "##df3": 3568,
      "##9d": 3569,
      "04t16": 3570,
      "31t18": 3571,
      "28t08": 3572,
      "18t13": 3573,
      "23t19": 3574,
      "##48a6": 3575,
      "virus": 3576,
      "##51a8": 3577,
      "degre": 3578,
      "##453ac8": 3579,
      "fd453ac8": 3580,
      "70704007": 3581,
      "degree": 3582,
      "fd453ac848a6": 3583,
      "bu": 3584,
      "##2f8": 3585,
      "31t13": 3586,
      "18t04": 3587,
      "13t21": 3588,
      "##62e": 3589,
      "394f": 3590,
      "##bd4": 3591,
      "##f33": 3592,
      "##0d8": 3593,
      "c251a8": 3594,
      "##468454": 3595,
      "c251a8468454": 3596,
      "e62": 3597,
      "##7a": 3598,
      "##ble": 3599,
      "##psis": 3600,
      "192": 3601,
      "03t23": 3602,
      "06t00": 3603,
      "26t23": 3604,
      "sepsis": 3605,
      "##6285": 3606,
      "6057": 3607,
      "##f5": 3608,
      "##tic": 3609,
      "##0b": 3610,
      "##itation": 3611,
      "19t09": 3612,
      "10t10": 3613,
      "sten": 3614,
      "09t10": 3615,
      "23t17": 3616,
      "##02008": 3617,
      "##7501": 3618,
      "hospital": 3619,
      "91302008": 3620,
      "60573004": 3621,
      "stenosis": 3622,
      "cel": 3623,
      "dent": 3624,
      "mf": 3625,
      "##73007": 3626,
      "##6b": 3627,
      "##1dd": 3628,
      "##34006": 3629,
      "##ric": 3630,
      "##ature": 3631,
      "##erature": 3632,
      "##alized": 3633,
      "10t21": 3634,
      "111": 3635,
      "11t06": 3636,
      "201834006": 3637,
      "6683": 3638,
      "##48c": 3639,
      "##020": 3640,
      "##adbe": 3641,
      "4382": 3642,
      "##506285": 3643,
      "temperature": 3644,
      "c9dd": 3645,
      "6094": 3646,
      "239873007": 3647,
      "localized": 3648,
      "##89c7501": 3649,
      "epidermal": 3650,
      "e6289c7501": 3651,
      "mfs": 3652,
      "6683506285": 3653,
      "e6289c750110": 3654,
      "66835062858a": 3655,
      "6454": 3656,
      "##8c": 3657,
      "##codone": 3658,
      "##last": 3659,
      "##gia": 3660,
      "19t00": 3661,
      "1043": 3662,
      "11t17": 3663,
      "21t13": 3664,
      "13t20": 3665,
      "29t05": 3666,
      "gingivop": 3667,
      "gingivectomy": 3668,
      "472f8": 3669,
      "regurg": 3670,
      "588": 3671,
      "##ptic": 3672,
      "##34000": 3673,
      "oxycodone": 3674,
      "60234000": 3675,
      "##adbeb72": 3676,
      "64544008": 3677,
      "##lasty": 3678,
      "gingivoplasty": 3679,
      "472f8adbeb72": 3680,
      "regurgitation": 3681,
      "##gh": 3682,
      "##asure": 3683,
      "30t19": 3684,
      "25t23": 3685,
      "15t10": 3686,
      "##319000": 3687,
      "40319000": 3688,
      "368": 3689,
      "5602001": 3690,
      "4833": 3691,
      "49727": 3692,
      "measure": 3693,
      "cough": 3694,
      "403190006": 3695,
      "48333001": 3696,
      "49727002": 3697,
      "measurement": 3698,
      "353": 3699,
      "9a": 3700,
      "fore": 3701,
      "f7e": 3702,
      "fib": 3703,
      "09c": 3704,
      "04t09": 3705,
      "08t17": 3706,
      "28t18": 3707,
      "bef3": 3708,
      "##82005": 3709,
      "##166": 3710,
      "6848": 3711,
      "##2c885": 3712,
      "##e2f": 3713,
      "6c2c885": 3714,
      "forearm": 3715,
      "6c2c8853": 3716,
      "cro": 3717,
      "##yal": 3718,
      "2030": 3719,
      "05t04": 3720,
      "125": 3721,
      "04t04": 3722,
      "31t02": 3723,
      "28t21": 3724,
      "##romyal": 3725,
      "##ee8": 3726,
      "quite": 3727,
      "##5275": 3728,
      "initial": 3729,
      "fibromyal": 3730,
      "203082005": 3731,
      "fibromyalgia": 3732,
      "##77": 3733,
      "##2d": 3734,
      "08t16": 3735,
      "17t18": 3736,
      "175275": 3737,
      "30t04": 3738,
      "26t20": 3739,
      "##astatin": 3740,
      "da0e": 3741,
      "##94a": 3742,
      "9967": 3743,
      "##93f4": 3744,
      "##9c2": 3745,
      "1a4c": 3746,
      "996793f4": 3747,
      "7d": 3748,
      "9c74": 3749,
      "giv": 3750,
      "##f09": 3751,
      "##f89": 3752,
      "##e68": 3753,
      "##0ad": 3754,
      "##led": 3755,
      "##vastatin": 3756,
      "03t19": 3757,
      "28t09": 3758,
      "22t02": 3759,
      "##f36": 3760,
      "##db47": 3761,
      "##ired": 3762,
      "##1fd": 3763,
      "70d8": 3764,
      "tri": 3765,
      "ut": 3766,
      "##f1": 3767,
      "10ee8": 3768,
      "06t21": 3769,
      "30t18": 3770,
      "25t00": 3771,
      "29c7": 3772,
      "##f3f33": 3773,
      "##ilities": 3774,
      "def": 3775,
      "##1859": 3776,
      "6203": 3777,
      "##1a1859": 3778,
      "1ca2": 3779,
      "4f11": 3780,
      "0c1a1859": 3781,
      "##62ef3f33": 3782,
      "5880005": 3783,
      "70d862ef3f33": 3784,
      "utilities": 3785,
      "10ee849d": 3786,
      "6d": 3787,
      "sed": 3788,
      "##uct": 3789,
      "12t20": 3790,
      "13t15": 3791,
      "25t03": 3792,
      "14t00": 3793,
      "obstr": 3794,
      "##a7ed": 3795,
      "##fc5": 3796,
      "simvastatin": 3797,
      "##uctive": 3798,
      "obstructive": 3799,
      "burg": 3800,
      "pack": 3801,
      "##e66": 3802,
      "##iment": 3803,
      "03t04": 3804,
      "2833": 3805,
      "24t03": 3806,
      "29t13": 3807,
      "##fe4": 3808,
      "bruen": 3809,
      "##mester": 3810,
      "0ba7ed": 3811,
      "f7e0": 3812,
      "##db4738": 3813,
      "trimester": 3814,
      "sediment": 3815,
      "0ba7eddb4738": 3816,
      "9b": 3817,
      "##cin": 3818,
      "##e02": 3819,
      "05t20": 3820,
      "121": 3821,
      "01t18": 3822,
      "16166": 3823,
      "255f": 3824,
      "##072": 3825,
      "##71005": 3826,
      "##d3d": 3827,
      "##e81": 3828,
      "283371005": 3829,
      "161665007": 3830,
      "3e81": 3831,
      "4fc": 3832,
      "a9": 3833,
      "bdfed": 3834,
      "c6": 3835,
      "##e3b": 3836,
      "##ise": 3837,
      "1937": 3838,
      "115": 3839,
      "041b": 3840,
      "18t17": 3841,
      "25t04": 3842,
      "##626": 3843,
      "##01f": 3844,
      "##1330": 3845,
      "##1c3c": 3846,
      "89fb9": 3847,
      "6c26": 3848,
      "##ccf48c": 3849,
      "913d": 3850,
      "e6ccf48c": 3851,
      "2e09": 3852,
      "bdfed7c9": 3853,
      "89fb9e68": 3854,
      "0e2f": 3855,
      "a45": 3856,
      "c1fd": 3857,
      "fc": 3858,
      "f36": 3859,
      "##arr": 3860,
      "propionate": 3861,
      "12t13": 3862,
      "08t20": 3863,
      "neop": 3864,
      "##867": 3865,
      "##860": 3866,
      "##08dc": 3867,
      "##470e": 3868,
      "flutic": 3869,
      "##9cb": 3870,
      "##lasm": 3871,
      "antibody": 3872,
      "353b": 3873,
      "##1330470e": 3874,
      "0e2f1330470e": 3875,
      "neoplasm": 3876,
      "fluticasone": 3877,
      "1d3d": 3878,
      "708dc": 3879,
      "a6": 3880,
      "but": 3881,
      "b23": 3882,
      "##dent": 3883,
      "##916": 3884,
      "##aid": 3885,
      "##paid": 3886,
      "##wise": 3887,
      "20t00": 3888,
      "disab": 3889,
      "06t20": 3890,
      "283": 3891,
      "21t04": 3892,
      "##4003": 3893,
      "26t22": 3894,
      "retired": 3895,
      "unpaid": 3896,
      "##fb8": 3897,
      "##157": 3898,
      "##ea5": 3899,
      "seeking": 3900,
      "##b33": 3901,
      "student": 3902,
      "otherwise": 3903,
      "giver": 3904,
      "708dc0ad": 3905,
      "disabled": 3906,
      "##5009": 3907,
      "160": 3908,
      "16t17": 3909,
      "15t16": 3910,
      "##47e2": 3911,
      "##05f": 3912,
      "619916": 3913,
      "e756": 3914,
      "8fe4": 3915,
      "##1004": 3916,
      "##ed260": 3917,
      "3142": 3918,
      "533c": 3919,
      "198ed260": 3920,
      "##86009": 3921,
      "##0cf89": 3922,
      "##16000": 3923,
      "67f0cf89": 3924,
      "##c5e62": 3925,
      "1dbd": 3926,
      "4fc4": 3927,
      "a45c5e62": 3928,
      "67f0cf8947e2": 3929,
      "61": 3930,
      "##9006": 3931,
      "##tra": 3932,
      "##tention": 3933,
      "##icit": 3934,
      "02t06": 3935,
      "03t16": 3936,
      "06t05": 3937,
      "##294003": 3938,
      "27t15": 3939,
      "15t04": 3940,
      "nontra": 3941,
      "43dc": 3942,
      "attention": 3943,
      "##ified": 3944,
      "127294003": 3945,
      "traumatic": 3946,
      "##127007": 3947,
      "192127007": 3948,
      "deficit": 3949,
      "nontraumatic": 3950,
      "7f36": 3951,
      "7fc5": 3952,
      "a488": 3953,
      "eb": 3954,
      "##c6": 3955,
      "##e56": 3956,
      "1957": 3957,
      "16t09": 3958,
      "21t14": 3959,
      "24t13": 3960,
      "##17bf": 3961,
      "41e3b": 3962,
      "##1c17bf": 3963,
      "fb1c17bf": 3964,
      "##4c860": 3965,
      "##9a1": 3966,
      "ff24": 3967,
      "f36f": 3968,
      "b234c860": 3969,
      "41e3b05f": 3970,
      "aut": 3971,
      "##eria": 3972,
      "02t22": 3973,
      "12t04": 3974,
      "07t18": 3975,
      "21t20": 3976,
      "23t04": 3977,
      "##de6": 3978,
      "314231": 3979,
      "773": 3980,
      "ce1": 3981,
      "##f83": 3982,
      "##201f": 3983,
      "##8f3": 3984,
      "##ert": 3985,
      "1952": 3986,
      "02t23": 3987,
      "119": 3988,
      "28t20": 3989,
      "07t14": 3990,
      "21t22": 3991,
      "13t23": 3992,
      "23t10": 3993,
      "29t17": 3994,
      "hep": 3995,
      "84053": 3996,
      "##af86": 3997,
      "e2a2": 3998,
      "b955": 3999,
      "##6264b": 4000,
      "ce16264b": 4001,
      "840539006": 4002,
      "7b": 4003,
      "##4e": 4004,
      "10t20": 4005,
      "04t21": 4006,
      "08t21": 4007,
      "thigh": 4008,
      "15t13": 4009,
      "##595f": 4010,
      "##ram": 4011,
      "##385000": 4012,
      "66d0": 4013,
      "##750000": 4014,
      "##83bb": 4015,
      "##a5b": 4016,
      "103750000": 4017,
      "99e02": 4018,
      "283385000": 4019,
      "##201f020": 4020,
      "99e02201f020": 4021,
      "##ant": 4022,
      "1955": 4023,
      "10t16": 4024,
      "31t16": 4025,
      "17t00": 4026,
      "30t10": 4027,
      "23t03": 4028,
      "14t23": 4029,
      "440c": 4030,
      "##48af86": 4031,
      "##822": 4032,
      "af83bb": 4033,
      "##042": 4034,
      "9913": 4035,
      "##f2595f": 4036,
      "e871": 4037,
      "7d48af86": 4038,
      "af83bbf2595f": 4039,
      "gr": 4040,
      "20t19": 4041,
      "1259": 4042,
      "##293006": 4043,
      "30t17": 4044,
      "##osite": 4045,
      "##4c8": 4046,
      "composite": 4047,
      "dentin": 4048,
      "1259293006": 4049,
      "2a7": 4050,
      "3d": 4051,
      "6b6": 4052,
      "69a1": 4053,
      "b461": 4054,
      "day": 4055,
      "##607": 4056,
      "191": 4057,
      "114": 4058,
      "31t17": 4059,
      "166": 4060,
      "27t17": 4061,
      "14t18": 4062,
      "14t16": 4063,
      "15t17": 4064,
      "44df": 4065,
      "none": 4066,
      "3849": 4067,
      "##d9c": 4068,
      "8a9d": 4069,
      "f75f": 4070,
      "##b2fb8": 4071,
      "3988f3": 4072,
      "d375": 4073,
      "##6c54": 4074,
      "09cb2fb8": 4075,
      "44df6c54": 4076,
      "3988f353": 4077,
      "##sure": 4078,
      "##insure": 4079,
      "inpatient": 4080,
      "19t08": 4081,
      "##oup": 4082,
      "11t10": 4083,
      "04t00": 4084,
      "08t22": 4085,
      "07t04": 4086,
      "##29005": 4087,
      "22t14": 4088,
      "uninsure": 4089,
      "##53cc": 4090,
      "##47d": 4091,
      "##0cc": 4092,
      "##16004": 4093,
      "##b8d": 4094,
      "92b8": 4095,
      "##c4e": 4096,
      "##454d4": 4097,
      "##1dd5": 4098,
      "group": 4099,
      "uninsured": 4100,
      "7e39": 4101,
      "bran": 4102,
      "bb33": 4103,
      "d1dd5": 4104,
      "tit": 4105,
      "##81": 4106,
      "##atitis": 4107,
      "03t06": 4108,
      "26t09": 4109,
      "##race": 4110,
      "##lev": 4111,
      "##05004": 4112,
      "6c45": 4113,
      "125605004": 4114,
      "moderate": 4115,
      "a35a": 4116,
      "7737": 4117,
      "hepatitis": 4118,
      "2a7454d4": 4119,
      "6b6d": 4120,
      "7e3953cc": 4121,
      "branch": 4122,
      "d1dd5867": 4123,
      "titer": 4124,
      "##mography": 4125,
      "12t17": 4126,
      "##ien": 4127,
      "##ferent": 4128,
      "hemogram": 4129,
      "##080": 4130,
      "##01008": 4131,
      "##bd6": 4132,
      "different": 4133,
      "##ccb": 4134,
      "manual": 4135,
      "104091": 4136,
      "indices": 4137,
      "differential": 4138,
      "104091002": 4139,
      "fc4e": 4140,
      "##7d": 4141,
      "##324": 4142,
      "##a0d": 4143,
      "##ni": 4144,
      "rel": 4145,
      "10t06": 4146,
      "116": 4147,
      "09e0": 4148,
      "26t06": 4149,
      "ac2d": 4150,
      "##0208": 4151,
      "##8254": 4152,
      "system": 4153,
      "##d4ef": 4154,
      "##dc6": 4155,
      "630208": 4156,
      "cross": 4157,
      "09e0d4ef": 4158,
      "a5": 4159,
      "a89": 4160,
      "##eb": 4161,
      "##ebd": 4162,
      "##e40": 4163,
      "##ber": 4164,
      "##sia": 4165,
      "1919": 4166,
      "02t09": 4167,
      "tomography": 4168,
      "16t20": 4169,
      "16t21": 4170,
      "##mpsia": 4171,
      "133": 4172,
      "15t19": 4173,
      "398254": 4174,
      "2788": 4175,
      "##83f83": 4176,
      "##lampsia": 4177,
      "##4c3": 4178,
      "c3a5b": 4179,
      "eclampsia": 4180,
      "398254007": 4181,
      "##83f8373": 4182,
      "c3a5b83f8373": 4183,
      "9d7": 4184,
      "f0": 4185,
      "mu": 4186,
      "##6f": 4187,
      "##coc": 4188,
      "##olog": 4189,
      "##ardi": 4190,
      "1049": 4191,
      "##ocardi": 4192,
      "113": 4193,
      "11t20": 4194,
      "11t23": 4195,
      "stand": 4196,
      "18t20": 4197,
      "26t04": 4198,
      "15t00": 4199,
      "##19e56": 4200,
      "##863": 4201,
      "detection": 4202,
      "4842": 4203,
      "mandi": 4204,
      "percoc": 4205,
      "e419e56": 4206,
      "##b54c8": 4207,
      "1049625": 4208,
      "standard": 4209,
      "percocet": 4210,
      "e419e56b54c8": 4211,
      "7000": 4212,
      "optic": 4213,
      "##205": 4214,
      "##017": 4215,
      "122": 4216,
      "06t03": 4217,
      "21t16": 4218,
      "24t23": 4219,
      "30t03": 4220,
      "##70005": 4221,
      "##dd2": 4222,
      "##464": 4223,
      "00d7": 4224,
      "##0c74": 4225,
      "##herence": 4226,
      "##b2a": 4227,
      "##f96": 4228,
      "coherence": 4229,
      "7c63": 4230,
      "700070005": 4231,
      "optical": 4232,
      "2d94": 4233,
      "b080": 4234,
      "ddf3": 4235,
      "129": 4236,
      "04t22": 4237,
      "06t16": 4238,
      "07t20": 4239,
      "180": 4240,
      "14t17": 4241,
      "##24b": 4242,
      "##0036": 4243,
      "##242324": 4244,
      "##73e2": 4245,
      "##5c73e2": 4246,
      "##36de6": 4247,
      "81242324": 4248,
      "c5b8d": 4249,
      "db5c73e2": 4250,
      "c5936de6": 4251,
      "c5b8dccb": 4252,
      "db5c73e20c74": 4253,
      "c5936de60036": 4254,
      "8822": 4255,
      "e1a": 4256,
      "##7b": 4257,
      "##6e": 4258,
      "##583": 4259,
      "##8ae": 4260,
      "##a14": 4261,
      "##e24": 4262,
      "20t16": 4263,
      "19t04": 4264,
      "03t03": 4265,
      "05t23": 4266,
      "##ce51": 4267,
      "26t17": 4268,
      "##0783": 4269,
      "##860783": 4270,
      "##71b": 4271,
      "##01b": 4272,
      "##fb4c3": 4273,
      "##39fb4c3": 4274,
      "##72e": 4275,
      "92ebd": 4276,
      "ff860783": 4277,
      "2d83": 4278,
      "modified": 4279,
      "teens": 4280,
      "92ebd39fb4c3": 4281,
      "ff860783ce51": 4282,
      "3bd6": 4283,
      "c61": 4284,
      "d004": 4285,
      "f94a": 4286,
      "##a45": 4287,
      "##e1b": 4288,
      "##ld": 4289,
      "19t14": 4290,
      "19t23": 4291,
      "05t03": 4292,
      "12t00": 4293,
      "16t18": 4294,
      "##abe66": 4295,
      "25t22": 4296,
      "##19b": 4297,
      "americ": 4298,
      "##road": 4299,
      "##22f": 4300,
      "51e4": 4301,
      "##64c8": 4302,
      "##57bd": 4303,
      "crossroad": 4304,
      "a89d": 4305,
      "e1aabe66": 4306,
      "3bd657bd": 4307,
      "american": 4308,
      "e1aabe6664c8": 4309,
      "2ef": 4310,
      "4dc": 4311,
      "e43": 4312,
      "rest": 4313,
      "##211": 4314,
      "##inyl": 4315,
      "##00002": 4316,
      "##ce8": 4317,
      "18t03": 4318,
      "##ab5": 4319,
      "17t23": 4320,
      "21t00": 4321,
      "25t20": 4322,
      "ethinyl": 4323,
      "##de7": 4324,
      "##02d": 4325,
      "##ec6": 4326,
      "##d88": 4327,
      "##7c2": 4328,
      "9449": 4329,
      "3f96": 4330,
      "7464": 4331,
      "94f": 4332,
      "cusp": 4333,
      "e16": 4334,
      "##f5c": 4335,
      "##oration": 4336,
      "02t00": 4337,
      "04t18": 4338,
      "04t06": 4339,
      "31t21": 4340,
      "##098": 4341,
      "13ca": 4342,
      "##otic": 4343,
      "14t19": 4344,
      "15t20": 4345,
      "##8005": 4346,
      "##31d9c": 4347,
      "66dc": 4348,
      "##verage": 4349,
      "##56a7": 4350,
      "##4602": 4351,
      "##4631d9c": 4352,
      "##illin": 4353,
      "##94fce": 4354,
      "##e956a7": 4355,
      "##b7b": 4356,
      "##e8a0d": 4357,
      "##20ac": 4358,
      "1256042": 4359,
      "coverage": 4360,
      "##5a4631d9c": 4361,
      "9a07": 4362,
      "6d49": 4363,
      "9be956a7": 4364,
      "9d7a": 4365,
      "d00420ac": 4366,
      "2ef5a4631d9c": 4367,
      "e43e8a0d": 4368,
      "restoration": 4369,
      "944994fce": 4370,
      "cusps": 4371,
      "1256042007": 4372,
      "944994fcee40": 4373,
      "5b9": 4374,
      "a74": 4375,
      "df": 4376,
      "marr": 4377,
      "##d74": 4378,
      "##a1": 4379,
      "##ism": 4380,
      "10863": 4381,
      "126906": 4382,
      "01t03": 4383,
      "##oma": 4384,
      "31t10": 4385,
      "16t06": 4386,
      "18t21": 4387,
      "17t21": 4388,
      "502": 4389,
      "##319": 4390,
      "##691004": 4391,
      "##1000119101": 4392,
      "7200002": 4393,
      "carcin": 4394,
      "coll": 4395,
      "##1c36": 4396,
      "alcoholism": 4397,
      "##fcbf": 4398,
      "##d7b": 4399,
      "92691004": 4400,
      "autolog": 4401,
      "marrow": 4402,
      "108631000119101": 4403,
      "126906006": 4404,
      "carcinoma": 4405,
      "autologous": 4406,
      "0fce": 4407,
      "bf": 4408,
      "dose": 4409,
      "fea5": 4410,
      "##ament": 4411,
      "##aad": 4412,
      "##icillin": 4413,
      "12t21": 4414,
      "04t05": 4415,
      "167": 4416,
      "14t03": 4417,
      "15t03": 4418,
      "##8001": 4419,
      "4444": 4420,
      "##898005": 4421,
      "5730": 4422,
      "##467": 4423,
      "39898005": 4424,
      "metere": 4425,
      "faca": 4426,
      "##187": 4427,
      "##11dd2": 4428,
      "399211": 4429,
      "ligament": 4430,
      "125601008": 4431,
      "d2a4": 4432,
      "d80f": 4433,
      "d976": 4434,
      "c6111dd2": 4435,
      "##fcbf4602": 4436,
      "fea51c36": 4437,
      "metered": 4438,
      "399211009": 4439,
      "d80ffcbf4602": 4440,
      "701b": 4441,
      "##f0d": 4442,
      "##d83": 4443,
      "##2f": 4444,
      "##41": 4445,
      "##291": 4446,
      "13t00": 4447,
      "22t23": 4448,
      "15t18": 4449,
      "##62017": 4450,
      "##3862017": 4451,
      "##3131": 4452,
      "scan": 4453,
      "##46c": 4454,
      "##75c": 4455,
      "##165": 4456,
      "##04a": 4457,
      "##44d8": 4458,
      "b5ab": 4459,
      "3d3862017": 4460,
      "##b2a3131": 4461,
      "502b2a3131": 4462,
      "3d38620178ae": 4463,
      "502b2a3131b4": 4464,
      "77c2": 4465,
      "##11f": 4466,
      "##gest": 4467,
      "09t23": 4468,
      "08de7": 4469,
      "173": 4470,
      "24t10": 4471,
      "54d7": 4472,
      "##bdc": 4473,
      "##d3a": 4474,
      "95a7": 4475,
      "##0ccd88": 4476,
      "##dc655": 4477,
      "##e1b0ccd88": 4478,
      "94f0": 4479,
      "e16e1b0ccd88": 4480,
      "a7444d8": 4481,
      "08de722f": 4482,
      "a7444d8dc655": 4483,
      "3b": 4484,
      "c19b": 4485,
      "dur": 4486,
      "##d32": 4487,
      "09t22": 4488,
      "31t06": 4489,
      "27t23": 4490,
      "24t22": 4491,
      "30t20": 4492,
      "very": 4493,
      "##e0f": 4494,
      "f0de": 4495,
      "much": 4496,
      "during": 4497,
      "67e": 4498,
      "868": 4499,
      "872e": 4500,
      "dc": 4501,
      "e1": 4502,
      "fri": 4503,
      "fie": 4504,
      "hip": 4505,
      "##get": 4506,
      "##ouble": 4507,
      "059c2": 4508,
      "12t03": 4509,
      "1850": 4510,
      "forget": 4511,
      "250": 4512,
      "##8008": 4513,
      "3346": 4514,
      "##7666": 4515,
      "alone": 4516,
      "##01b7b": 4517,
      "##ends": 4518,
      "##a2e24": 4519,
      "##be2b": 4520,
      "##53601b7b": 4521,
      "trouble": 4522,
      "9ea4": 4523,
      "power": 4524,
      "relax": 4525,
      "5b9be2b": 4526,
      "##187001": 4527,
      "f0de53601b7b": 4528,
      "868187001": 4529,
      "friends": 4530,
      "field": 4531,
      "059c2ab5": 4532,
      "5b9be2ba2e24": 4533,
      "5a": 4534,
      "9f09": 4535,
      "cc": 4536,
      "##3f": 4537,
      "20t18": 4538,
      "##rel": 4539,
      "10t03": 4540,
      "09t20": 4541,
      "21e4": 4542,
      "13t22": 4543,
      "##opor": 4544,
      "##lete": 4545,
      "##d42": 4546,
      "osteopor": 4547,
      "##761001": 4548,
      "complete": 4549,
      "##a14a": 4550,
      "185086009": 4551,
      "##7666a14a": 4552,
      "9f097666a14a": 4553,
      "5d7b": 4554,
      "##6007": 4555,
      "##9053": 4556,
      "##tr": 4557,
      "03t10": 4558,
      "09t04": 4559,
      "28t17": 4560,
      "07t06": 4561,
      "1778": 4562,
      "##ac6": 4563,
      "##fb3": 4564,
      "841f": 4565,
      "84ce8": 4566,
      "ultr": 4567,
      "a8ae": 4568,
      "25216000": 4569,
      "##11f9053": 4570,
      "177811f9053": 4571,
      "84ce846c": 4572,
      "252160004": 4573,
      "177811f90535": 4574,
      "5cf3": 4575,
      "659": 4576,
      "##orgest": 4577,
      "31t12": 4578,
      "07t03": 4579,
      "186": 4580,
      "2584": 4581,
      "73761001": 4582,
      "de6b": 4583,
      "colonoscopy": 4584,
      "##fce2": 4585,
      "4f9e": 4586,
      "##d74f0d": 4587,
      "67ef": 4588,
      "5cf3d74f0d": 4589,
      "5cf3d74f0d70": 4590,
      "5d3a": 4591,
      "7e0f": 4592,
      "c1c3c": 4593,
      "##b1": 4594,
      "##asound": 4595,
      "05t06": 4596,
      "09t16": 4597,
      "##ability": 4598,
      "24t04": 4599,
      "30t23": 4600,
      "30c7": 4601,
      "14t09": 4602,
      "##1c0": 4603,
      "65bdc": 4604,
      "127b": 4605,
      "##230002": 4606,
      "351": 4607,
      "##844": 4608,
      "viability": 4609,
      "e0c71b": 4610,
      "169230002": 4611,
      "2d27": 4612,
      "a932": 4613,
      "##f5c0": 4614,
      "ultrasound": 4615,
      "2584fce2": 4616,
      "c1c3c100": 4617,
      "65bdc04a": 4618,
      "e0c71b1d": 4619,
      "3f3": 4620,
      "fir": 4621,
      "##3000": 4622,
      "##bec": 4623,
      "##gment": 4624,
      "##hea": 4625,
      "##ination": 4626,
      "06t22": 4627,
      "urinal": 4628,
      "26t10": 4629,
      "15607": 4630,
      "radi": 4631,
      "##69002": 4632,
      "pregnant": 4633,
      "##d669": 4634,
      "19169002": 4635,
      "first": 4636,
      "urinalysis": 4637,
      "156073000": 4638,
      "4c2": 4639,
      "618": 4640,
      "702d": 4641,
      "ad42": 4642,
      "##d01": 4643,
      "##b0a": 4644,
      "02t03": 4645,
      "07t22": 4646,
      "185": 4647,
      "23t18": 4648,
      "1970": 4649,
      "##fa7": 4650,
      "##39d": 4651,
      "##5cd669": 4652,
      "99dc": 4653,
      "7524": 4654,
      "##dff": 4655,
      "78f6": 4656,
      "b55cd669": 4657,
      "78f6f5c0": 4658,
      "682": 4659,
      "term": 4660,
      "##b0": 4661,
      "08t15": 4662,
      "182": 4663,
      "##ogest": 4664,
      "##veol": 4665,
      "##56f": 4666,
      "##12c": 4667,
      "alveol": 4668,
      "termination": 4669,
      "0fa7": 4670,
      "245": 4671,
      "71c0": 4672,
      "a844": 4673,
      "e0": 4674,
      "elev": 4675,
      "##6a": 4676,
      "##ateral": 4677,
      "05t10": 4678,
      "segment": 4679,
      "14t21": 4680,
      "15t06": 4681,
      "##105": 4682,
      "37bd4": 4683,
      "valerate": 4684,
      "##d9aad": 4685,
      "##d4f": 4686,
      "jaw": 4687,
      "##9e8": 4688,
      "arterial": 4689,
      "d8ba": 4690,
      "4c2d9aad": 4691,
      "61804006": 4692,
      "alveolitis": 4693,
      "elevation": 4694,
      "37bd4d32": 4695,
      "##229": 4696,
      "##1314": 4697,
      "##ling": 4698,
      "20t04": 4699,
      "20t03": 4700,
      "03t09": 4701,
      "31t03": 4702,
      "28t05": 4703,
      "07t00": 4704,
      "21t17": 4705,
      "13t10": 4706,
      "262": 4707,
      "144": 4708,
      "contrace": 4709,
      "fun": 4710,
      "afric": 4711,
      "##ptive": 4712,
      "##f88": 4713,
      "contraceptive": 4714,
      "african": 4715,
      "409": 4716,
      "a157": 4717,
      "f39d": 4718,
      "##dac": 4719,
      "##az": 4720,
      "##cd": 4721,
      "10t04": 4722,
      "10t22": 4723,
      "09t03": 4724,
      "01t16": 4725,
      "130": 4726,
      "29t06": 4727,
      "29t20": 4728,
      "##317": 4729,
      "##696": 4730,
      "401314": 4731,
      "58a8": 4732,
      "##744": 4733,
      "smear": 4734,
      "##ization": 4735,
      "##9aac": 4736,
      "##c4fb3": 4737,
      "7782": 4738,
      "c95a": 4739,
      "3f3c4fb3": 4740,
      "a1579aac": 4741,
      "401314000": 4742,
      "8b": 4743,
      "c7": 4744,
      "##5e1": 4745,
      "##118": 4746,
      "##a39": 4747,
      "##cf": 4748,
      "20t23": 4749,
      "medial": 4750,
      "31t00": 4751,
      "3137": 4752,
      "28t10": 4753,
      "##ab8": 4754,
      "##ab9": 4755,
      "##197": 4756,
      "##85c": 4757,
      "##8674": 4758,
      "1963": 4759,
      "395": 4760,
      "inter": 4761,
      "##479": 4762,
      "##4ba": 4763,
      "##63d": 4764,
      "collateral": 4765,
      "444448004": 4766,
      "313782": 4767,
      "5fe": 4768,
      "648": 4769,
      "a78": 4770,
      "gu": 4771,
      "09t21": 4772,
      "128": 4773,
      "08t03": 4774,
      "178": 4775,
      "132": 4776,
      "##idance": 4777,
      "amox": 4778,
      "##d445": 4779,
      "e6e7": 4780,
      "oxygen": 4781,
      "radiation": 4782,
      "guidance": 4783,
      "amoxicillin": 4784,
      "4e": 4785,
      "922": 4786,
      "c1": 4787,
      "fat": 4788,
      "home": 4789,
      "##516004": 4790,
      "##ag": 4791,
      "209": 4792,
      "##erine": 4793,
      "##icip": 4794,
      "##ab94": 4795,
      "##enatal": 4796,
      "##igue": 4797,
      "1486": 4798,
      "##6209": 4799,
      "clav": 4800,
      "##uterine": 4801,
      "57d2": 4802,
      "##76bf": 4803,
      "##088f": 4804,
      "##illary": 4805,
      "84229": 4806,
      "999cb": 4807,
      "intrauterine": 4808,
      "##188": 4809,
      "71dd": 4810,
      "anticip": 4811,
      "antenatal": 4812,
      "386516004": 4813,
      "function": 4814,
      "fatigue": 4815,
      "##76bf9e8": 4816,
      "84229001": 4817,
      "999cb76bf9e8": 4818,
      "anticipatory": 4819,
      "cap": 4820,
      "fur": 4821,
      "##043": 4822,
      "##mide": 4823,
      "20t17": 4824,
      "20t20": 4825,
      "20a7": 4826,
      "##ed2b6": 4827,
      "0359": 4828,
      "05t21": 4829,
      "09205": 4830,
      "01t17": 4831,
      "16t22": 4832,
      "2132": 4833,
      "15t22": 4834,
      "##osemide": 4835,
      "##8613": 4836,
      "1960": 4837,
      "45dff": 4838,
      "schad": 4839,
      "##b92": 4840,
      "##cc2": 4841,
      "##74d": 4842,
      "drugs": 4843,
      "##72002": 4844,
      "##d808": 4845,
      "4b15": 4846,
      "def6": 4847,
      "##4c4ba": 4848,
      "781f": 4849,
      "f462": 4850,
      "c2088f": 4851,
      "239872002": 4852,
      "9c8674": 4853,
      "9ea7": 4854,
      "eb28": 4855,
      "a5e2": 4856,
      "5fe4c4ba": 4857,
      "a78ed2b6": 4858,
      "##d44567": 4859,
      "148681": 4860,
      "furosemide": 4861,
      "092055e1": 4862,
      "45dff467": 4863,
      "schaden": 4864,
      "c2088fd44567": 4865,
      "9c867408": 4866,
      "4d": 4867,
      "ech": 4868,
      "fa": 4869,
      "##88": 4870,
      "##80": 4871,
      "##a0": 4872,
      "19t03": 4873,
      "03t20": 4874,
      "##0006": 4875,
      "04t23": 4876,
      "##456": 4877,
      "177": 4878,
      "##099e": 4879,
      "##1010": 4880,
      "##59006": 4881,
      "29t23": 4882,
      "##6937": 4883,
      "##14d": 4884,
      "##b95": 4885,
      "##7ca": 4886,
      "788": 4887,
      "##35b": 4888,
      "##67d808": 4889,
      "1c67d808": 4890,
      "a6a3": 4891,
      "##ocardiography": 4892,
      "osteoporosis": 4893,
      "64859006": 4894,
      "20a7099e": 4895,
      "echocardiography": 4896,
      "1c67d808ab94": 4897,
      "20a7099e8613": 4898,
      "5ce": 4899,
      "9317": 4900,
      "e63d": 4901,
      "hp": 4902,
      "native": 4903,
      "##676": 4904,
      "##086": 4905,
      "##ke": 4906,
      "20t05": 4907,
      "##eda3c": 4908,
      "1944": 4909,
      "04t10": 4910,
      "06t23": 4911,
      "27t14": 4912,
      "26t05": 4913,
      "147": 4914,
      "##622": 4915,
      "##828": 4916,
      "##d4b": 4917,
      "##a5d": 4918,
      "##a26937": 4919,
      "##a77f": 4920,
      "##e93": 4921,
      "ad7a": 4922,
      "f4a26937": 4923,
      "10756f": 4924,
      "1b93": 4925,
      "b512": 4926,
      "bacteria": 4927,
      "3b08": 4928,
      "##118ba": 4929,
      "922118ba": 4930,
      "hpf": 4931,
      "10756f0a": 4932,
      "6d4f": 4933,
      "a33": 4934,
      "d1010": 4935,
      "sh": 4936,
      "sal": 4937,
      "##der": 4938,
      "##4a": 4939,
      "##a9e": 4940,
      "##terol": 4941,
      "##sh": 4942,
      "##ich": 4943,
      "##meterol": 4944,
      "099a": 4945,
      "12t23": 4946,
      "01t21": 4947,
      "164": 4948,
      "16t23": 4949,
      "07t23": 4950,
      "##0947": 4951,
      "134": 4952,
      "25e8": 4953,
      "14t10": 4954,
      "##5996": 4955,
      "##3858": 4956,
      "896209": 4957,
      "##032": 4958,
      "dry": 4959,
      "##7e3": 4960,
      "##f6e": 4961,
      "b524": 4962,
      "##0f3a77f": 4963,
      "powder": 4964,
      "245314": 4965,
      "7880f3a77f": 4966,
      "##eda3c09": 4967,
      "b5123858": 4968,
      "d1010eda3c09": 4969,
      "salmeterol": 4970,
      "7880f3a77ffd": 4971,
      "b51238580947": 4972,
      "145": 4973,
      "97ca": 4974,
      "ddf": 4975,
      "df9": 4976,
      "flo": 4977,
      "tet": 4978,
      "##749": 4979,
      "##609": 4980,
      "##e5": 4981,
      "##vent": 4982,
      "##orph": 4983,
      "044": 4984,
      "28t06": 4985,
      "28t03": 4986,
      "07t10": 4987,
      "131": 4988,
      "234": 4989,
      "159": 4990,
      "150": 4991,
      "ab27": 4992,
      "##141b": 4993,
      "##acter": 4994,
      "##08b92": 4995,
      "744e": 4996,
      "895996": 4997,
      "##e0bec": 4998,
      "62e0bec": 4999,
      "##f8e": 5000,
      "e4d9": 5001,
      "##ee6dac": 5002,
      "bff4": 5003,
      "e1ee6dac": 5004,
      "flovent": 5005,
      "tetan": 5006,
      "ab27141b": 5007,
      "62e0bec08b92": 5008,
      "3c": 5009,
      "9ac6": 5010,
      "a5c": 5011,
      "a24b": 5012,
      "b12": 5013,
      "fv": 5014,
      "f85c": 5015,
      "##fes": 5016,
      "##cillary": 5017,
      "##try": 5018,
      "##ring": 5019,
      "##v1": 5020,
      "03t21": 5021,
      "##0072": 5022,
      "01t04": 5023,
      "18t05": 5024,
      "##ens": 5025,
      "##irome": 5026,
      "248a": 5027,
      "ancillary": 5028,
      "##108c": 5029,
      "##023009": 5030,
      "spirome": 5031,
      "##46f": 5032,
      "##sional": 5033,
      "profes": 5034,
      "12778": 5035,
      "services": 5036,
      "##73f88": 5037,
      "##1d7": 5038,
      "fev1": 5039,
      "d796": 5040,
      "9c127": 5041,
      "7bad": 5042,
      "409023009": 5043,
      "a24b73f88": 5044,
      "fvc": 5045,
      "##108c0072": 5046,
      "spirometry": 5047,
      "professional": 5048,
      "127783003": 5049,
      "d796108c0072": 5050,
      "a24b73f88197": 5051,
      "5a5d": 5052,
      "d14d": 5053,
      "gun": 5054,
      "##d60": 5055,
      "##5004": 5056,
      "##97": 5057,
      "##ub": 5058,
      "0332": 5059,
      "09t06": 5060,
      "##cef": 5061,
      "2835": 5062,
      "##llet": 5063,
      "##45005": 5064,
      "17t17": 5065,
      "21t03": 5066,
      "227f": 5067,
      "30t16": 5068,
      "146": 5069,
      "4460": 5070,
      "typing": 5071,
      "##b9d": 5072,
      "##b9091": 5073,
      "##0ca": 5074,
      "##ea35b": 5075,
      "##58a": 5076,
      "##574004": 5077,
      "e0c0": 5078,
      "##e447d": 5079,
      "db17": 5080,
      "c593": 5081,
      "bullet": 5082,
      "##6e5c5": 5083,
      "df31": 5084,
      "##d01e447d": 5085,
      "262574004": 5086,
      "##744ea35b": 5087,
      "##479b9091": 5088,
      "a336e5c5": 5089,
      "##shot": 5090,
      "9ac6744ea35b": 5091,
      "9c127696": 5092,
      "d14d479b9091": 5093,
      "gunshot": 5094,
      "283545005": 5095,
      "227fd01e447d": 5096,
      "44608003": 5097,
      "2b": 5098,
      "cert": 5099,
      "ferr": 5100,
      "nas": 5101,
      "sip": 5102,
      "##less": 5103,
      "##gred": 5104,
      "##way": 5105,
      "##yd": 5106,
      "inert": 5107,
      "ingred": 5108,
      "168": 5109,
      "187": 5110,
      "18t06": 5111,
      "22453": 5112,
      "230": 5113,
      "26t03": 5114,
      "##ients": 5115,
      "##utum": 5116,
      "##02cc2": 5117,
      "sputum": 5118,
      "##475": 5119,
      "##684": 5120,
      "##0d7c": 5121,
      "death": 5122,
      "##b7d": 5123,
      "bd49": 5124,
      "##cf35": 5125,
      "mandible": 5126,
      "homeless": 5127,
      "5ce02cc2": 5128,
      "nasal": 5129,
      "sipes": 5130,
      "ingredients": 5131,
      "5ce02cc20d7c": 5132,
      "2f8e": 5133,
      "3291": 5134,
      "5c": 5135,
      "612c": 5136,
      "902": 5137,
      "ea45": 5138,
      "##6008": 5139,
      "##35000": 5140,
      "##cb": 5141,
      "##01000": 5142,
      "##par": 5143,
      "##gestion": 5144,
      "##ed20": 5145,
      "##icway": 5146,
      "31t22": 5147,
      "31398": 5148,
      "prepar": 5149,
      "congestion": 5150,
      "13t03": 5151,
      "22t06": 5152,
      "##ils": 5153,
      "seiz": 5154,
      "151": 5155,
      "29t21": 5156,
      "##318": 5157,
      "lev": 5158,
      "##de4": 5159,
      "##69cf35": 5160,
      "##26007": 5161,
      "##249c": 5162,
      "##76ec": 5163,
      "5557": 5164,
      "##4909": 5165,
      "##53f": 5166,
      "41a39": 5167,
      "##ef2": 5168,
      "71a3": 5169,
      "traff": 5170,
      "37d3ed20": 5171,
      "68235000": 5172,
      "##62251": 5173,
      "##7e369cf35": 5174,
      "df97e369cf35": 5175,
      "32911000": 5176,
      "313988": 5177,
      "preparation": 5178,
      "seizure": 5179,
      "41a39ee6": 5180,
      "trafficway": 5181,
      "3b7d": 5182,
      "4a": 5183,
      "4c": 5184,
      "4f4": 5185,
      "##1a8": 5186,
      "20t21": 5187,
      "##edc": 5188,
      "##ition": 5189,
      "rect": 5190,
      "11t21": 5191,
      "06t17": 5192,
      "28t04": 5193,
      "##092": 5194,
      "135e": 5195,
      "2631": 5196,
      "149": 5197,
      "14t20": 5198,
      "##neum": 5199,
      "44609": 5200,
      "ext": 5201,
      "##b99": 5202,
      "2780": 5203,
      "##23bd4": 5204,
      "##f30": 5205,
      "##d9f4": 5206,
      "##face": 5207,
      "##db1": 5208,
      "fluid": 5209,
      "##72003": 5210,
      "##d5e": 5211,
      "infectious": 5212,
      "fe249c": 5213,
      "b889": 5214,
      "f129": 5215,
      "e0bb": 5216,
      "8bb95": 5217,
      "##18874d": 5218,
      "a5c23bd4": 5219,
      "263172003": 5220,
      "446096008": 5221,
      "##d9f446f": 5222,
      "fe249c18874d": 5223,
      "8bb95d9f446f": 5224,
      "a5c23bd44909": 5225,
      "3f6e": 5226,
      "562251": 5227,
      "6ea": 5228,
      "bre": 5229,
      "cf": 5230,
      "cyt": 5231,
      "rub": 5232,
      "tine": 5233,
      "zost": 5234,
      "##fir": 5235,
      "##5d": 5236,
      "##18003": 5237,
      "##3e": 5238,
      "##bri": 5239,
      "##nce": 5240,
      "##rhea": 5241,
      "##sce": 5242,
      "##lam": 5243,
      "##matory": 5244,
      "##zation": 5245,
      "##atholog": 5246,
      "##orrhea": 5247,
      "##itative": 5248,
      "##icella": 5249,
      "##icien": 5250,
      "##anate": 5251,
      "##losis": 5252,
      "01t00": 5253,
      "##odef": 5254,
      "31676": 5255,
      "31086": 5256,
      "2816": 5257,
      "16t03": 5258,
      "1658": 5259,
      "18t22": 5260,
      "confir": 5261,
      "chlam": 5262,
      "##ilis": 5263,
      "248": 5264,
      "23t20": 5265,
      "23a9e": 5266,
      "##ulanate": 5267,
      "syph": 5268,
      "##aca": 5269,
      "##387": 5270,
      "4435": 5271,
      "##opatholog": 5272,
      "##86d60": 5273,
      "##oresce": 5274,
      "##26004": 5275,
      "##2616": 5276,
      "##828009": 5277,
      "##123002": 5278,
      "36a9": 5279,
      "4775": 5280,
      "##dization": 5281,
      "##75008": 5282,
      "qualitative": 5283,
      "35ab9": 5284,
      "genital": 5285,
      "hybri": 5286,
      "##42007": 5287,
      "fluoresce": 5288,
      "314098": 5289,
      "##bbf": 5290,
      "d4ab8": 5291,
      "##culosis": 5292,
      "865f": 5293,
      "immunodef": 5294,
      "##c4a9": 5295,
      "surface": 5296,
      "11701000": 5297,
      "269828009": 5298,
      "varicella": 5299,
      "tuber": 5300,
      "gonorrhea": 5301,
      "d2f7": 5302,
      "60218003": 5303,
      "104326007": 5304,
      "104375008": 5305,
      "c619": 5306,
      "##50091d7": 5307,
      "##d836c": 5308,
      "c784": 5309,
      "395123002": 5310,
      "clavulanate": 5311,
      "ddfd836c": 5312,
      "##ydia": 5313,
      "90226004": 5314,
      "e0bbc4a9": 5315,
      "cytopatholog": 5316,
      "rubella": 5317,
      "zoster": 5318,
      "##iciency": 5319,
      "31676001": 5320,
      "310861008": 5321,
      "28163009": 5322,
      "165829005": 5323,
      "confirmatory": 5324,
      "chlamydia": 5325,
      "23a9e50091d7": 5326,
      "syphilis": 5327,
      "##86d6012": 5328,
      "##2616b9d": 5329,
      "47758006": 5330,
      "35ab92616b9d": 5331,
      "hybridization": 5332,
      "fluorescence": 5333,
      "314098000": 5334,
      "d4ab886d6012": 5335,
      "immunodeficiency": 5336,
      "117010004": 5337,
      "tuberculosis": 5338,
      "cytopathology": 5339,
      "676ec": 5340,
      "8e": 5341,
      "bord": 5342,
      "cory": 5343,
      "##dium": 5344,
      "##502": 5345,
      "##3d": 5346,
      "##eu": 5347,
      "##tu": 5348,
      "##bacter": 5349,
      "##oy": 5350,
      "02t04": 5351,
      "##ridium": 5352,
      "05t22": 5353,
      "##cement": 5354,
      "##omal": 5355,
      "##etella": 5356,
      "diphth": 5357,
      "##ab7": 5358,
      "##ssis": 5359,
      "2714": 5360,
      "27t00": 5361,
      "##idy": 5362,
      "chrom": 5363,
      "aneu": 5364,
      "2685": 5365,
      "##chni": 5366,
      "##stridium": 5367,
      "contain": 5368,
      "##nebacter": 5369,
      "amni": 5370,
      "##56b": 5371,
      "##56000": 5372,
      "##014008": 5373,
      "##raction": 5374,
      "##cc8": 5375,
      "clostridium": 5376,
      "pertu": 5377,
      "##osomal": 5378,
      "##5116": 5379,
      "##335c5": 5380,
      "techni": 5381,
      "399014008": 5382,
      "##ploidy": 5383,
      "antigens": 5384,
      "product": 5385,
      "##65d": 5386,
      "##797": 5387,
      "##eriae": 5388,
      "tetani": 5389,
      "extraction": 5390,
      "443529005": 5391,
      "676ec335c5": 5392,
      "bordetella": 5393,
      "corynebacter": 5394,
      "diphtheriae": 5395,
      "chromosomal": 5396,
      "aneuploidy": 5397,
      "268556000": 5398,
      "containing": 5399,
      "amniotic": 5400,
      "pertussis": 5401,
      "technique": 5402,
      "676ec335c5bd": 5403,
      "corynebacterium": 5404,
      "229": 5405,
      "a684": 5406,
      "b0ca": 5407,
      "eff": 5408,
      "f9": 5409,
      "light": 5410,
      "pneum": 5411,
      "ter": 5412,
      "##dce": 5413,
      "##rotein": 5414,
      "##sul": 5415,
      "##atomy": 5416,
      "##onia": 5417,
      "19t20": 5418,
      "01t22": 5419,
      "##09d5e": 5420,
      "27583": 5421,
      "anatomy": 5422,
      "15t21": 5423,
      "##595": 5424,
      "##oprotein": 5425,
      "##266": 5426,
      "36105": 5427,
      "alph": 5428,
      "##uses": 5429,
      "##ecc": 5430,
      "##23e": 5431,
      "763": 5432,
      "misuses": 5433,
      "87b7": 5434,
      "fetoprotein": 5435,
      "capsul": 5436,
      "4f409d5e": 5437,
      "271442007": 5438,
      "pneumonia": 5439,
      "275833003": 5440,
      "361055000": 5441,
      "alpha": 5442,
      "capsule": 5443,
      "2d4b": 5444,
      "2f30": 5445,
      "85116": 5446,
      "d58a": 5447,
      "##2e": 5448,
      "##con": 5449,
      "##b69": 5450,
      "##vice": 5451,
      "##ann": 5452,
      "##etric": 5453,
      "##urring": 5454,
      "secon": 5455,
      "25t17": 5456,
      "##stetric": 5457,
      "obstetric": 5458,
      "572": 5459,
      "##06ee6": 5460,
      "73430006": 5461,
      "##b3fa": 5462,
      "postnatal": 5463,
      "##73c": 5464,
      "##d8d7": 5465,
      "device": 5466,
      "##1d043": 5467,
      "##be4": 5468,
      "##bf9cb": 5469,
      "##496007": 5470,
      "##af6f": 5471,
      "occurring": 5472,
      "398a": 5473,
      "c245": 5474,
      "complication": 5475,
      "609496007": 5476,
      "##75c06ee6": 5477,
      "c11d043": 5478,
      "85116003": 5479,
      "d58a75c06ee6": 5480,
      "second": 5481,
      "c11d043bf9cb": 5482,
      "417": 5483,
      "946": 5484,
      "9db1": 5485,
      "b4c": 5486,
      "e53f": 5487,
      "##c01": 5488,
      "repla": 5489,
      "0459": 5490,
      "28t22": 5491,
      "161": 5492,
      "21t21": 5493,
      "##5983": 5494,
      "##38af6f": 5495,
      "6699": 5496,
      "##8515": 5497,
      "bee7": 5498,
      "##142f": 5499,
      "0050": 5500,
      "##015009": 5501,
      "51e0": 5502,
      "probe": 5503,
      "subling": 5504,
      "##83d": 5505,
      "##8365d": 5506,
      "##4238af6f": 5507,
      "ad85": 5508,
      "##e6c": 5509,
      "##e6d8d7": 5510,
      "##e3e9": 5511,
      "117015009": 5512,
      "e4e6d8d7": 5513,
      "300c": 5514,
      "cc4238af6f": 5515,
      "6ea8365d": 5516,
      "76304": 5517,
      "replacement": 5518,
      "0050142f": 5519,
      "51e0b3fa": 5520,
      "sublingual": 5521,
      "cc4238af6f1c": 5522,
      "9165": 5523,
      "ee93": 5524,
      "naa": 5525,
      "tyl": 5526,
      "##77c9": 5527,
      "##c3": 5528,
      "##tual": 5529,
      "##za": 5530,
      "##ational": 5531,
      "prog": 5532,
      "19t21": 5533,
      "108515": 5534,
      "02e1": 5535,
      "118001": 5536,
      "08t04": 5537,
      "31t20": 5538,
      "16t04": 5539,
      "18t23": 5540,
      "##enol": 5541,
      "25t21": 5542,
      "##raf": 5543,
      "##0789": 5544,
      "nore": 5545,
      "##rox": 5546,
      "##144": 5547,
      "virtual": 5548,
      "##e99": 5549,
      "streptococcus": 5550,
      "opioids": 5551,
      "d2e3e9": 5552,
      "##5c5456": 5553,
      "4dc77c9": 5554,
      "4dc5c5456": 5555,
      "209387": 5556,
      "rectal": 5557,
      "##bbf23e": 5558,
      "##502a2": 5559,
      "pneumoniae": 5560,
      "tylenol": 5561,
      "prograf": 5562,
      "118001005": 5563,
      "d2e3e9bbf23e": 5564,
      "4dc77c9502a2": 5565,
      "4dc5c5456ef2": 5566,
      "2ab7": 5567,
      "3319": 5568,
      "7d94": 5569,
      "a47d": 5570,
      "bde4": 5571,
      "nal": 5572,
      "ta": 5573,
      "##21": 5574,
      "##8b": 5575,
      "##9b": 5576,
      "##pren": 5577,
      "##gative": 5578,
      "##onorgest": 5579,
      "##indron": 5580,
      "10t05": 5581,
      "10ecc": 5582,
      "03t22": 5583,
      "12t05": 5584,
      "##thindron": 5585,
      "135": 5586,
      "22t03": 5587,
      "3039": 5588,
      "##ulation": 5589,
      "negative": 5590,
      "beam": 5591,
      "exter": 5592,
      "34e9": 5593,
      "399c2": 5594,
      "##oxone": 5595,
      "##7f1": 5596,
      "f4a7": 5597,
      "fb5aca": 5598,
      "##dc25983": 5599,
      "e2dc25983": 5600,
      "##dfed8": 5601,
      "##5be9": 5602,
      "a35dfed8": 5603,
      "bupren": 5604,
      "351266": 5605,
      "##orphine": 5606,
      "##475be4": 5607,
      "levonorgest": 5608,
      "572488": 5609,
      "norethindron": 5610,
      "33195004": 5611,
      "naloxone": 5612,
      "10ecc353": 5613,
      "external": 5614,
      "399c2cef": 5615,
      "fb5aca475be4": 5616,
      "e2dc25983e62": 5617,
      "buprenorphine": 5618,
      "levonorgestrel": 5619,
      "norethindrone": 5620,
      "782": 5621,
      "##25": 5622,
      "##571": 5623,
      "##aa2": 5624,
      "1941": 5625,
      "##ock": 5626,
      "04t03": 5627,
      "163": 5628,
      "##45b99": 5629,
      "176": 5630,
      "179": 5631,
      "21t05": 5632,
      "14t22": 5633,
      "##asts": 5634,
      "5054": 5635,
      "##17f": 5636,
      "##1446": 5637,
      "##bular": 5638,
      "cardi": 5639,
      "##0e2": 5640,
      "##367": 5641,
      "711446": 5642,
      "##1c3c45b99": 5643,
      "mandibular": 5644,
      "23426": 5645,
      "b121c3c45b99": 5646,
      "248595": 5647,
      "711446003": 5648,
      "248595008": 5649,
      "8e6c": 5650,
      "casts": 5651,
      "d6": 5652,
      "great": 5653,
      "muc": 5654,
      "rna": 5655,
      "sat": 5656,
      "##f49": 5657,
      "##ce6": 5658,
      "##ivid": 5659,
      "170": 5660,
      "211": 5661,
      "27t03": 5662,
      "220": 5663,
      "##uration": 5664,
      "30t22": 5665,
      "##102": 5666,
      "##dec": 5667,
      "##1000119100": 5668,
      "##49ee": 5669,
      "455be9": 5670,
      "##534": 5671,
      "##75009": 5672,
      "##03b": 5673,
      "##32c9": 5674,
      "##588": 5675,
      "##d34": 5676,
      "63ec": 5677,
      "individ": 5678,
      "1231000119100": 5679,
      "##b6956b": 5680,
      "mucus": 5681,
      "saturation": 5682,
      "455be9b6956b": 5683,
      "individual": 5684,
      "2c": 5685,
      "3edc": 5686,
      "el": 5687,
      "ear": 5688,
      "e7f1": 5689,
      "gle": 5690,
      "##95": 5691,
      "##a63": 5692,
      "##pment": 5693,
      "##ued": 5694,
      "##lopment": 5695,
      "1162": 5696,
      "3156": 5697,
      "31t23": 5698,
      "183": 5699,
      "223": 5700,
      "##ilial": 5701,
      "30t06": 5702,
      "15t05": 5703,
      "##velopment": 5704,
      "29t22": 5705,
      "370789": 5706,
      "##265002": 5707,
      "433": 5708,
      "familial": 5709,
      "##47e": 5710,
      "##4b4": 5711,
      "##39002": 5712,
      "##e9a5": 5713,
      "development": 5714,
      "##18a": 5715,
      "0b71": 5716,
      "##0b32c9": 5717,
      "fc49ee": 5718,
      "230265002": 5719,
      "78275009": 5720,
      "mandibularis": 5721,
      "individualized": 5722,
      "elect": 5723,
      "early": 5724,
      "gleason": 5725,
      "11625007": 5726,
      "315639002": 5727,
      "370789001": 5728,
      "fc49ee0b32c9": 5729,
      "5ec6": 5730,
      "5cc8": 5731,
      "8244": 5732,
      "pass": 5733,
      "##f61": 5734,
      "##des": 5735,
      "##116004": 5736,
      "##ebc": 5737,
      "##iian": 5738,
      "##onide": 5739,
      "193": 5740,
      "05c01": 5741,
      "0178": 5742,
      "188": 5743,
      "##45b": 5744,
      "148": 5745,
      "153": 5746,
      "##599a": 5747,
      "##8912": 5748,
      "##856": 5749,
      "##861": 5750,
      "hawa": 5751,
      "##480fe": 5752,
      "33583": 5753,
      "349": 5754,
      "##dd1a8": 5755,
      "##bd65": 5756,
      "5164": 5757,
      "51116004": 5758,
      "##16032": 5759,
      "89e3": 5760,
      "##03a": 5761,
      "immunization": 5762,
      "##ef318": 5763,
      "96dce": 5764,
      "common": 5765,
      "f305": 5766,
      "8c1e": 5767,
      "0bdd1a8": 5768,
      "##7277d": 5769,
      "budes": 5770,
      "##f1af": 5771,
      "##1577277d": 5772,
      "dca8": 5773,
      "5a16032": 5774,
      "4d0d": 5775,
      "b4c6": 5776,
      "0b71e9a5": 5777,
      "82441577277d": 5778,
      "passive": 5779,
      "05c01480fe": 5780,
      "hawaiian": 5781,
      "##bd658912": 5782,
      "96dce072": 5783,
      "8c1ebd658912": 5784,
      "0bdd1a87": 5785,
      "budesonide": 5786,
      "5a16032ef318": 5787,
      "05c01480fe2c": 5788,
      "0e99": 5789,
      "6f": 5790,
      "852": 5791,
      "a3": 5792,
      "a797": 5793,
      "##2a": 5794,
      "##546": 5795,
      "##up": 5796,
      "##icitis": 5797,
      "02t05": 5798,
      "04e9": 5799,
      "##0965": 5800,
      "##400008": 5801,
      "septic": 5802,
      "##106007": 5803,
      "##uced": 5804,
      "74400008": 5805,
      "##b9c": 5806,
      "##039": 5807,
      "76571": 5808,
      "##64072": 5809,
      "##73b": 5810,
      "62106007": 5811,
      "d723": 5812,
      "appendicitis": 5813,
      "641": 5814,
      "shock": 5815,
      "##7493": 5816,
      "certification": 5817,
      "##f1af7493": 5818,
      "0e99f1af7493": 5819,
      "04e964072": 5820,
      "76571007": 5821,
      "04e96407217f": 5822,
      "1e": 5823,
      "4ff": 5824,
      "847": 5825,
      "a7": 5826,
      "b588": 5827,
      "dien": 5828,
      "ef09": 5829,
      "##4d": 5830,
      "inr": 5831,
      "195": 5832,
      "1950": 5833,
      "03t05": 5834,
      "01t05": 5835,
      "310965": 5836,
      "184": 5837,
      "172": 5838,
      "##urition": 5839,
      "##6216000": 5840,
      "parturition": 5841,
      "##192": 5842,
      "##ribes": 5843,
      "describes": 5844,
      "##fered": 5845,
      "##495": 5846,
      "##ocytes": 5847,
      "number": 5848,
      "##05d2": 5849,
      "##13b6": 5850,
      "386216000": 5851,
      "meth": 5852,
      "##cc0": 5853,
      "##ophils": 5854,
      "##5c8": 5855,
      "c8599a": 5856,
      "occup": 5857,
      "##bc9": 5858,
      "##c605d2": 5859,
      "interfered": 5860,
      "##agulation": 5861,
      "effect": 5862,
      "##aa218a": 5863,
      "dienogest": 5864,
      "ef09c605d2": 5865,
      "c8599aaa218a": 5866,
      "occupational": 5867,
      "ef09c605d25b": 5868,
      "5f": 5869,
      "6b": 5870,
      "a01": 5871,
      "b4": 5872,
      "bbf": 5873,
      "ce": 5874,
      "d83d": 5875,
      "ef": 5876,
      "e092": 5877,
      "f8": 5878,
      "norgest": 5879,
      "pos": 5880,
      "sut": 5881,
      "##8d": 5882,
      "##c1": 5883,
      "##rocardi": 5884,
      "##var": 5885,
      "##ask": 5886,
      "1032": 5887,
      "035": 5888,
      "2880": 5889,
      "##298": 5890,
      "chest": 5891,
      "152": 5892,
      "158": 5893,
      "##17c": 5894,
      "acc2": 5895,
      "72a7": 5896,
      "##63c": 5897,
      "open": 5898,
      "coagulation": 5899,
      "##b0af61": 5900,
      "ferry": 5901,
      "##73c13b6": 5902,
      "electrocardi": 5903,
      "4ff73c13b6": 5904,
      "norgestimate": 5905,
      "suture": 5906,
      "288086009": 5907,
      "acc2b0af61": 5908,
      "electrocardiog": 5909,
      "4ff73c13b648": 5910,
      "acc2b0af61f5": 5911,
      "a2": 5912,
      "b4b": 5913,
      "nat": 5914,
      "##sy": 5915,
      "##meth": 5916,
      "13t04": 5917,
      "##ulmon": 5918,
      "ramp": 5919,
      "##150": 5920,
      "##ea9": 5921,
      "96a4": 5922,
      "##df3b5": 5923,
      "method": 5924,
      "a01df3b5": 5925,
      "##ulmonary": 5926,
      "1ea": 5927,
      "359": 5928,
      "5b": 5929,
      "5144": 5930,
      "a03a": 5931,
      "cb": 5932,
      "e5": 5933,
      "fo": 5934,
      "hale": 5935,
      "mon": 5936,
      "ward": 5937,
      "##774": 5938,
      "##da3": 5939,
      "##6d": 5940,
      "##50e2": 5941,
      "##luen": 5942,
      "##ger": 5943,
      "##ject": 5944,
      "discussion": 5945,
      "19a63": 5946,
      "04t20": 5947,
      "28534": 5948,
      "##4561": 5949,
      "17t05": 5950,
      "aspir": 5951,
      "2930": 5952,
      "##38ad": 5953,
      "ab03": 5954,
      "##85828": 5955,
      "5950e2": 5956,
      "##5685828": 5957,
      "724561": 5958,
      "##052": 5959,
      "corner": 5960,
      "##fb1": 5961,
      "##51006": 5962,
      "##0e76": 5963,
      "##78b0a": 5964,
      "94fe": 5965,
      "39920": 5966,
      "##a4ebc": 5967,
      "b8d2": 5968,
      "##727a4ebc": 5969,
      "284551006": 5970,
      "d914": 5971,
      "4eb3": 5972,
      "terrace": 5973,
      "##03b5c8": 5974,
      "bbf78b0a": 5975,
      "electrocardiographic": 5976,
      "foot": 5977,
      "haley": 5978,
      "##luenza": 5979,
      "19a635685828": 5980,
      "aspirin": 5981,
      "29303009": 5982,
      "##38adb8": 5983,
      "ab03727a4ebc": 5984,
      "5950e203b5c8": 5985,
      "72456138adb8": 5986,
      "399208008": 5987,
      "bbf78b0a0e76": 5988,
      "b7": 5989,
      "bou": 5990,
      "bd34": 5991,
      "c4": 5992,
      "c63c": 5993,
      "e02": 5994,
      "f6": 5995,
      "mal": 5996,
      "mask": 5997,
      "taking": 5998,
      "vill": 5999,
      "##1ab": 6000,
      "##itting": 6001,
      "inser": 6002,
      "1012": 6003,
      "##094": 6004,
      "2259": 6005,
      "##igna": 6006,
      "23t21": 6007,
      "263": 6008,
      "detox": 6009,
      "55d1": 6010,
      "##82004": 6011,
      "##8216": 6012,
      "##087": 6013,
      "##5394a": 6014,
      "##bdf9": 6015,
      "##5f7": 6016,
      "##040": 6017,
      "##b8cc0": 6018,
      "##7f48": 6019,
      "##0d8e": 6020,
      "immuno": 6021,
      "71319": 6022,
      "fcf": 6023,
      "##levard": 6024,
      "##165b8cc0": 6025,
      "##f495394a": 6026,
      "##73b40": 6027,
      "1ea0d8e": 6028,
      "boulevard": 6029,
      "maligna": 6030,
      "insertion": 6031,
      "2259165b8cc0": 6032,
      "detoxification": 6033,
      "55d1f495394a": 6034,
      "713197008": 6035,
      "1ea0d8e73b40": 6036,
      "malignant": 6037,
      "000": 6038,
      "309": 6039,
      "4d9": 6040,
      "7a": 6041,
      "912": 6042,
      "a4": 6043,
      "e3": 6044,
      "gard": 6045,
      "pulmonary": 6046,
      "rout": 6047,
      "si": 6048,
      "suc": 6049,
      "##57c": 6050,
      "##082": 6051,
      "##ok": 6052,
      "##ving": 6053,
      "##onis": 6054,
      "##assay": 6055,
      "##ett": 6056,
      "08t23": 6057,
      "##mph": 6058,
      "##mple": 6059,
      "174": 6060,
      "215": 6061,
      "27t16": 6062,
      "221": 6063,
      "148216": 6064,
      "293f": 6065,
      "##amine": 6066,
      "##02bdf9": 6067,
      "727f48": 6068,
      "##061": 6069,
      "##39e": 6070,
      "##c44": 6071,
      "##634": 6072,
      "simonis": 6073,
      "crook": 6074,
      "##cinate": 6075,
      "##24bdec": 6076,
      "4a5f": 6077,
      "23426006": 6078,
      "immunoassay": 6079,
      "fcf24bdec": 6080,
      "gardens": 6081,
      "route": 6082,
      "simple": 6083,
      "succinate": 6084,
      "727f4802bdf9": 6085,
      "crooks": 6086,
      "fcf24bdec47e": 6087,
      "4e9": 6088,
      "5d": 6089,
      "5e": 6090,
      "7a45": 6091,
      "ae": 6092,
      "b6": 6093,
      "pane": 6094,
      "qvar": 6095,
      "sig": 6096,
      "##617": 6097,
      "##126": 6098,
      "##9f": 6099,
      "##clo": 6100,
      "##ropionate": 6101,
      "##propionate": 6102,
      "##orac": 6103,
      "prot": 6104,
      "194": 6105,
      "11t05": 6106,
      "05t05": 6107,
      "01t23": 6108,
      "dipropionate": 6109,
      "181": 6110,
      "##ulf": 6111,
      "154": 6112,
      "##800df": 6113,
      "##854": 6114,
      "beclo": 6115,
      "43098": 6116,
      "##12005": 6117,
      "723": 6118,
      "##081": 6119,
      "##bd4b4": 6120,
      "metast": 6121,
      "1998774": 6122,
      "##ae7": 6123,
      "##lant": 6124,
      "implant": 6125,
      "##bbbd4b4": 6126,
      "##554": 6127,
      "##9a138": 6128,
      "##e7b4": 6129,
      "actuated": 6130,
      "induced": 6131,
      "c60a": 6132,
      "breath": 6133,
      "cf800df": 6134,
      "cardiac": 6135,
      "##methasone": 6136,
      "e02bbbd4b4": 6137,
      "panel": 6138,
      "sign": 6139,
      "##oracic": 6140,
      "beclomethasone": 6141,
      "cf800df9a138": 6142,
      "e02bbbd4b4a6": 6143,
      "1f": 6144,
      "8495": 6145,
      "ee": 6146,
      "li": 6147,
      "nap": 6148,
      "##dra": 6149,
      "##129": 6150,
      "##92": 6151,
      "##wal": 6152,
      "##mann": 6153,
      "##00003": 6154,
      "##ern": 6155,
      "11t22": 6156,
      "1269": 6157,
      "12861": 6158,
      "##thoracic": 6159,
      "27t22": 6160,
      "##ilization": 6161,
      "25t05": 6162,
      "withdra": 6163,
      "4471": 6164,
      "continued": 6165,
      "amount": 6166,
      "##1789": 6167,
      "transthoracic": 6168,
      "##0882004": 6169,
      "##erson": 6170,
      "##4745": 6171,
      "##478008": 6172,
      "58f4": 6173,
      "##istent": 6174,
      "##236007": 6175,
      "84100": 6176,
      "84478008": 6177,
      "##ipl": 6178,
      "65200003": 6179,
      "##2c39": 6180,
      "##b20": 6181,
      "road": 6182,
      "c257c": 6183,
      "##baa4": 6184,
      "persistent": 6185,
      "##c8b": 6186,
      "1290882004": 6187,
      "##291009": 6188,
      "173291009": 6189,
      "interp": 6190,
      "##roxen": 6191,
      "433236007": 6192,
      "##bc9baa4": 6193,
      "##c44e7b4": 6194,
      "723c44e7b4": 6195,
      "signs": 6196,
      "849574": 6197,
      "naproxen": 6198,
      "128613002": 6199,
      "withdrawal": 6200,
      "84100007": 6201,
      "c257cbc9baa4": 6202,
      "723c44e7b414": 6203,
      "2a": 6204,
      "3f": 6205,
      "3e": 6206,
      "633": 6207,
      "6072": 6208,
      "8ce6": 6209,
      "839e": 6210,
      "9e": 6211,
      "917": 6212,
      "b0": 6213,
      "bb": 6214,
      "b75c": 6215,
      "e27": 6216,
      "fitting": 6217,
      "her": 6218,
      "mo": 6219,
      "ng": 6220,
      "ug": 6221,
      "##90": 6222,
      "##ach": 6223,
      "##son": 6224,
      "274": 6225,
      "30t21": 6226,
      "##otomy": 6227,
      "234745": 6228,
      "156": 6229,
      "##38da3": 6230,
      "partial": 6231,
      "330": 6232,
      "##dd6a": 6233,
      "##98625": 6234,
      "45885": 6235,
      "##064008": 6236,
      "##75040": 6237,
      "1097": 6238,
      "##15c": 6239,
      "##321004": 6240,
      "flat": 6241,
      "##944": 6242,
      "impression": 6243,
      "8a38": 6244,
      "##2cb": 6245,
      "69f7": 6246,
      "##6045b": 6247,
      "camp": 6248,
      "ca98625": 6249,
      "##ander": 6250,
      "1b1b": 6251,
      "denture": 6252,
      "09c2c39": 6253,
      "351136": 6254,
      "2bdd6a": 6255,
      "229064008": 6256,
      "9460": 6257,
      "take": 6258,
      "b4b75040": 6259,
      "metastatic": 6260,
      "1269321004": 6261,
      "movement": 6262,
      "234745004": 6263,
      "ca9862538da3": 6264,
      "09c2c396045b": 6265,
      "2bdd6aa2": 6266,
      "0e": 6267,
      "2f": 6268,
      "407": 6269,
      "6e": 6270,
      "7f": 6271,
      "703": 6272,
      "aa": 6273,
      "ble": 6274,
      "bay": 6275,
      "b7f": 6276,
      "bern": 6277,
      "can": 6278,
      "e20": 6279,
      "f5": 6280,
      "psy": 6281,
      "tast": 6282,
      "##759": 6283,
      "##182": 6284,
      "##ew": 6285,
      "##nse": 6286,
      "##iated": 6287,
      "##iren": 6288,
      "##ris": 6289,
      "##rine": 6290,
      "##hard": 6291,
      "##eding": 6292,
      "19t05": 6293,
      "1038": 6294,
      "09t05": 6295,
      "12t22": 6296,
      "diarr": 6297,
      "##ested": 6298,
      "216": 6299,
      "22t05": 6300,
      "chew": 6301,
      "30t05": 6302,
      "anus": 6303,
      "23607": 6304,
      "##50005": 6305,
      "##190": 6306,
      "4415": 6307,
      "##lex": 6308,
      "notification": 6309,
      "##4812005": 6310,
      "367": 6311,
      "##497": 6312,
      "reflex": 6313,
      "##racted": 6314,
      "##394001": 6315,
      "##phrine": 6316,
      "##73e66": 6317,
      "##55009": 6318,
      "36916": 6319,
      "36955009": 6320,
      "##260004": 6321,
      "714812005": 6322,
      "94260004": 6323,
      "81150": 6324,
      "harris": 6325,
      "386394001": 6326,
      "counse": 6327,
      "initiated": 6328,
      "##ea573e66": 6329,
      "91251008": 6330,
      "protracted": 6331,
      "6072007": 6332,
      "bleeding": 6333,
      "bayer": 6334,
      "bernhard": 6335,
      "e20ea573e66": 6336,
      "psych": 6337,
      "taste": 6338,
      "10383002": 6339,
      "diarrhea": 6340,
      "chewable": 6341,
      "236077008": 6342,
      "441550005": 6343,
      "counseling": 6344,
      "e20ea573e66c": 6345,
      "3b9c": 6346,
      "6a": 6347,
      "8f": 6348,
      "8554": 6349,
      "9ad": 6350,
      "ag": 6351,
      "dys": 6352,
      "eich": 6353,
      "iron": 6354,
      "nda": 6355,
      "par": 6356,
      "vaz": 6357,
      "wis": 6358,
      "##dom": 6359,
      "##iotomy": 6360,
      "##pnea": 6361,
      "##vor": 6362,
      "##isiotomy": 6363,
      "##alore": 6364,
      "##alipl": 6365,
      "##inephrine": 6366,
      "18039": 6367,
      "42f0": 6368,
      "##emotherapy": 6369,
      "##covor": 6370,
      "17367": 6371,
      "##099": 6372,
      "##artment": 6373,
      "chemotherapy": 6374,
      "237": 6375,
      "231": 6376,
      "23b4": 6377,
      "25634": 6378,
      "14t05": 6379,
      "##ac1ab": 6380,
      "##bined": 6381,
      "##0230": 6382,
      "##491": 6383,
      "department": 6384,
      "##533": 6385,
      "4614": 6386,
      "##bd2cb": 6387,
      "leucovor": 6388,
      "65546": 6389,
      "episiotomy": 6390,
      "epinephrine": 6391,
      "##041": 6392,
      "##32003": 6393,
      "##d4e0": 6394,
      "##b3d83": 6395,
      "794": 6396,
      "##423002": 6397,
      "injector": 6398,
      "##bb082": 6399,
      "##b723": 6400,
      "##f6b8": 6401,
      "combined": 6402,
      "##c2b723": 6403,
      "oxalipl": 6404,
      "##020800": 6405,
      "eb58": 6406,
      "auto": 6407,
      "##205c2b723": 6408,
      "1870230": 6409,
      "8eb3d83": 6410,
      "4d9205c2b723": 6411,
      "4e9ac1ab": 6412,
      "63332003": 6413,
      "703423002": 6414,
      "3b9cbb082": 6415,
      "85548006": 6416,
      "dyspnea": 6417,
      "eichmann": 6418,
      "nda020800": 6419,
      "vazalore": 6420,
      "wisdom": 6421,
      "1803932": 6422,
      "1736776": 6423,
      "2563431": 6424,
      "leucovorin": 6425,
      "65546002": 6426,
      "oxaliplatin": 6427,
      "8eb3d83bd2cb": 6428,
      "4e9ac1abd4e0": 6429,
      "3b9cbb082854": 6430,
      "1000": 6431,
      "3a": 6432,
      "639": 6433,
      "724": 6434,
      "705": 6435,
      "cr": 6436,
      "c087": 6437,
      "dea9": 6438,
      "ea": 6439,
      "magn": 6440,
      "us": 6441,
      "##1001": 6442,
      "##iotic": 6443,
      "20t22": 6444,
      "##esium": 6445,
      "##arin": 6446,
      "19t22": 6447,
      "313c": 6448,
      "281789": 6449,
      "##thing": 6450,
      "17t22": 6451,
      "27t04": 6452,
      "268": 6453,
      "258": 6454,
      "292": 6455,
      "##38a8": 6456,
      "##38b20": 6457,
      "372": 6458,
      "434": 6459,
      "##466": 6460,
      "##22d": 6461,
      "##470000": 6462,
      "clothing": 6463,
      "##fcf": 6464,
      "##bb77": 6465,
      "834": 6466,
      "449b": 6467,
      "antibiotic": 6468,
      "##ec65f7": 6469,
      "greater": 6470,
      "223470000": 6471,
      "##ette": 6472,
      "e27944": 6473,
      "b7ff6b8": 6474,
      "cancer": 6475,
      "c08738a8": 6476,
      "magnesium": 6477,
      "281789004": 6478,
      "e27944ec65f7": 6479,
      "b7ff6b838b20": 6480,
      "c08738a8bb77": 6481,
      "3c8b": 6482,
      "831": 6483,
      "824": 6484,
      "9f": 6485,
      "dd": 6486,
      "ly": 6487,
      "pen": 6488,
      "sn": 6489,
      "##91": 6490,
      "##ey": 6491,
      "##eed": 6492,
      "##tage": 6493,
      "##hia": 6494,
      "203": 6495,
      "one": 6496,
      "##inger": 6497,
      "##esth": 6498,
      "##esia": 6499,
      "reinger": 6500,
      "104922": 6501,
      "3138": 6502,
      "28cc": 6503,
      "189": 6504,
      "##ab6": 6505,
      "plus": 6506,
      "##097": 6507,
      "anesth": 6508,
      "233": 6509,
      "23t22": 6510,
      "255": 6511,
      "##cheric": 6512,
      "##ithel": 6513,
      "##07e": 6514,
      "37190": 6515,
      "##romide": 6516,
      "##eeb": 6517,
      "57617": 6518,
      "##ddf": 6519,
      "39079": 6520,
      "influenza": 6521,
      "coli": 6522,
      "381": 6523,
      "escheric": 6524,
      "epithel": 6525,
      "##0417": 6526,
      "##04bc": 6527,
      "3511": 6528,
      "forming": 6529,
      "closed": 6530,
      "867": 6531,
      "69ec": 6532,
      "identified": 6533,
      "##a6d": 6534,
      "colony": 6535,
      "frontage": 6536,
      "cov": 6537,
      "collection": 6538,
      "lymph": 6539,
      "penicillin": 6540,
      "snf": 6541,
      "1049221": 6542,
      "313820": 6543,
      "anesthesia": 6544,
      "371908008": 6545,
      "57617002": 6546,
      "390791001": 6547,
      "escherichia": 6548,
      "epithelial": 6549,
      "0f": 6550,
      "0a": 6551,
      "7e": 6552,
      "8ec6": 6553,
      "a1": 6554,
      "ba": 6555,
      "cd": 6556,
      "po": 6557,
      "sulf": 6558,
      "##817": 6559,
      "##iate": 6560,
      "##lin": 6561,
      "208": 6562,
      "##onin": 6563,
      "##erone": 6564,
      "##erior": 6565,
      "08t05": 6566,
      "310417": 6567,
      "286": 6568,
      "1839": 6569,
      "##ab2": 6570,
      "##ab1dd": 6571,
      "212": 6572,
      "213": 6573,
      "226": 6574,
      "306": 6575,
      "##38173": 6576,
      "##uciate": 6577,
      "##70001": 6578,
      "##087000": 6579,
      "##220": 6580,
      "##155f": 6581,
      "##ead": 6582,
      "99ef": 6583,
      "##9a9": 6584,
      "anterior": 6585,
      "##7b17c": 6586,
      "444470001": 6587,
      "185087000": 6588,
      "##ogesterone": 6589,
      "17804": 6590,
      "##9738173": 6591,
      "946ab1dd": 6592,
      "349094": 6593,
      "notifications": 6594,
      "9ad9738173": 6595,
      "cruciate": 6596,
      "28cc7b17c": 6597,
      "351109": 6598,
      "poor": 6599,
      "sulfate": 6600,
      "310417005": 6601,
      "946ab1dd155f": 6602,
      "9ad973817369": 6603,
      "28cc7b17cfb9": 6604,
      "0d": 6605,
      "0008": 6606,
      "678": 6607,
      "748": 6608,
      "8d": 6609,
      "810": 6610,
      "832": 6611,
      "8fa": 6612,
      "9d": 6613,
      "9789": 6614,
      "9ae7": 6615,
      "b1": 6616,
      "bas": 6617,
      "bri": 6618,
      "corm": 6619,
      "dens": 6620,
      "et": 6621,
      "eith": 6622,
      "eos": 6623,
      "mar": 6624,
      "sa": 6625,
      "sen": 6626,
      "view": 6627,
      "##362": 6628,
      "##tation": 6629,
      "##bated": 6630,
      "##ier": 6631,
      "##rophils": 6632,
      "##rogesterone": 6633,
      "##of": 6634,
      "##pite": 6635,
      "##pson": 6636,
      "##heral": 6637,
      "##hils": 6638,
      "##ked": 6639,
      "##ken": 6640,
      "##xation": 6641,
      "##joy": 6642,
      "##onogest": 6643,
      "##retation": 6644,
      "##itive": 6645,
      "##ities": 6646,
      "190": 6647,
      "ster": 6648,
      "medrox": 6649,
      "##ieve": 6650,
      "##ompson": 6651,
      "162676": 6652,
      "##ivity": 6653,
      "##45c": 6654,
      "enjoy": 6655,
      "277": 6656,
      "13t05": 6657,
      "thompson": 6658,
      "##iler": 6659,
      "24t05": 6660,
      "30828": 6661,
      "1476": 6662,
      "14052": 6663,
      "15081": 6664,
      "##102004": 6665,
      "44316": 6666,
      "##yprogesterone": 6667,
      "desire": 6668,
      "despite": 6669,
      "neut": 6670,
      "anderson": 6671,
      "##luxation": 6672,
      "##oponin": 6673,
      "##def": 6674,
      "##694": 6675,
      "having": 6676,
      "exacer": 6677,
      "##142": 6678,
      "##494": 6679,
      "##ec4": 6680,
      "45298": 6681,
      "415300": 6682,
      "activities": 6683,
      "subluxation": 6684,
      "##ificate": 6685,
      "##inophils": 6686,
      "perip": 6687,
      "##278": 6688,
      "##1f2": 6689,
      "acetate": 6690,
      "trailer": 6691,
      "troponin": 6692,
      "386053": 6693,
      "##sitivity": 6694,
      "7b5c": 6695,
      "systems": 6696,
      "osteoporotic": 6697,
      "##azia": 6698,
      "certificate": 6699,
      "taken": 6700,
      "effects": 6701,
      "positive": 6702,
      "natazia": 6703,
      "359817": 6704,
      "monocytes": 6705,
      "ville": 6706,
      "263102004": 6707,
      "life": 6708,
      "amounts": 6709,
      "interpretation": 6710,
      "1000126": 6711,
      "lymphocytes": 6712,
      "99ef04bc": 6713,
      "978950": 6714,
      "basophils": 6715,
      "brief": 6716,
      "cormier": 6717,
      "density": 6718,
      "etonogest": 6719,
      "either": 6720,
      "eosinophils": 6721,
      "marked": 6722,
      "same": 6723,
      "sensitivity": 6724,
      "medroxyprogesterone": 6725,
      "162676008": 6726,
      "enjoyment": 6727,
      "308283009": 6728,
      "14768001": 6729,
      "15081005": 6730,
      "443165006": 6731,
      "neutrophils": 6732,
      "exacerbated": 6733,
      "415300000": 6734,
      "peripheral": 6735,
      "386053000": 6736,
      "359817006": 6737,
      "etonogestrel": 6738,
      "markedly": 6739,
      "743": 6740,
      "771": 6741,
      "833": 6742,
      "c0": 6743,
      "don": 6744,
      "er": 6745,
      "gl": 6746,
      "ran": 6747,
      "vent": 6748,
      "##farction": 6749,
      "##412": 6750,
      "##rin": 6751,
      "##min": 6752,
      "##infarction": 6753,
      "##ed9": 6754,
      "##ical": 6755,
      "prone": 6756,
      "312": 6757,
      "284": 6758,
      "preinfarction": 6759,
      "##295": 6760,
      "plac": 6761,
      "##45e": 6762,
      "214": 6763,
      "219": 6764,
      "279": 6765,
      "3018": 6766,
      "##ogly": 6767,
      "mmse": 6768,
      "##107": 6769,
      "##10c": 6770,
      "##385": 6771,
      "##19008": 6772,
      "##075": 6773,
      "##071": 6774,
      "phone": 6775,
      "37099": 6776,
      "##697": 6777,
      "##ee7": 6778,
      "##ee3": 6779,
      "nitrogly": 6780,
      "##492": 6781,
      "##ddc": 6782,
      "431182": 6783,
      "4557": 6784,
      "dox": 6785,
      "##1c6": 6786,
      "risks": 6787,
      "subject": 6788,
      "##adine": 6789,
      "357": 6790,
      "##cerin": 6791,
      "##a58": 6792,
      "76ce": 6793,
      "unsure": 6794,
      "##52d": 6795,
      "198405": 6796,
      "##4031": 6797,
      "##673001": 6798,
      "rhd": 6799,
      "##e1e": 6800,
      "169673001": 6801,
      "##96000": 6802,
      "##79005": 6803,
      "position": 6804,
      "implantation": 6805,
      "##15c22d": 6806,
      "37204": 6807,
      "67879005": 6808,
      "8fa15c22d": 6809,
      "glen": 6810,
      "placing": 6811,
      "370995009": 6812,
      "nitroglycerin": 6813,
      "431182000": 6814,
      "4557003": 6815,
      "8fa15c22dfb1": 6816,
      "543": 6817,
      "627": 6818,
      "915": 6819,
      "d1": 6820,
      "dro": 6821,
      "green": 6822,
      "jol": 6823,
      "pept": 6824,
      "pag": 6825,
      "rue": 6826,
      "sg": 6827,
      "tre": 6828,
      "wal": 6829,
      "yaz": 6830,
      "##fd9": 6831,
      "##dro": 6832,
      "##689": 6833,
      "##305": 6834,
      "##a07": 6835,
      "##trome": 6836,
      "##bromide": 6837,
      "##sp": 6838,
      "##pl": 6839,
      "##per": 6840,
      "##uested": 6841,
      "##ws": 6842,
      "##horm": 6843,
      "##zing": 6844,
      "##xtrome": 6845,
      "##quested": 6846,
      "##reich": 6847,
      "##errent": 6848,
      "##anade": 6849,
      "requested": 6850,
      "##uretic": 6851,
      "##riuretic": 6852,
      "311": 6853,
      "282": 6854,
      "285": 6855,
      "##ab3": 6856,
      "##thorph": 6857,
      "##enreich": 6858,
      "##ivette": 6859,
      "##idenreich": 6860,
      "##ilure": 6861,
      "##usion": 6862,
      "##623": 6863,
      "whee": 6864,
      "##10b": 6865,
      "##rong": 6866,
      "##315": 6867,
      "upper": 6868,
      "heidenreich": 6869,
      "##191": 6870,
      "##8919008": 6871,
      "object": 6872,
      "alley": 6873,
      "408919008": 6874,
      "##268": 6875,
      "##563": 6876,
      "##roach": 6877,
      "##146": 6878,
      "340": 6879,
      "deterrent": 6880,
      "##028": 6881,
      "##823": 6882,
      "##utel": 6883,
      "approach": 6884,
      "##ec3": 6885,
      "5601": 6886,
      "##01c": 6887,
      "##0154": 6888,
      "327": 6889,
      "prohorm": 6890,
      "espl": 6891,
      "##037": 6892,
      "##033": 6893,
      "##036007": 6894,
      "##fbe": 6895,
      "##fbb": 6896,
      "##d44": 6897,
      "##ae8": 6898,
      "##ae9": 6899,
      "##fa8": 6900,
      "##fa9": 6901,
      "hydro": 6902,
      "##osocial": 6903,
      "##a27": 6904,
      "mews": 6905,
      "##a8d": 6906,
      "75759": 6907,
      "dextrome": 6908,
      "##553002": 6909,
      "##e2a": 6910,
      "267102": 6911,
      "267036007": 6912,
      "169553002": 6913,
      "60920": 6914,
      "##ylamine": 6915,
      "1043400": 6916,
      "1860154": 6917,
      "failure": 6918,
      "terminal": 6919,
      "natriuretic": 6920,
      "##irenone": 6921,
      "psychosocial": 6922,
      "831533": 6923,
      "82489": 6924,
      "183996000": 6925,
      "748856": 6926,
      "sterilization": 6927,
      "errin": 6928,
      "doxylamine": 6929,
      "drosp": 6930,
      "jolivette": 6931,
      "peptide": 6932,
      "pagac": 6933,
      "treutel": 6934,
      "##thorphan": 6935,
      "wheezing": 6936,
      "56018004": 6937,
      "prohormone": 6938,
      "esplanade": 6939,
      "hydrobromide": 6940,
      "757594": 6941,
      "dextromethorphan": 6942,
      "267102003": 6943,
      "drospirenone": 6944,
      "1007": 6945,
      "1d8": 6946,
      "338": 6947,
      "348": 6948,
      "517": 6949,
      "546": 6950,
      "828": 6951,
      "fec": 6952,
      "keeb": 6953,
      "mura": 6954,
      "nien": 6955,
      "ven": 6956,
      "way": 6957,
      "##fusion": 6958,
      "##903": 6959,
      "##a49": 6960,
      "##nn": 6961,
      "##ik": 6962,
      "##sal": 6963,
      "##ler": 6964,
      "##zik": 6965,
      "207": 6966,
      "##icle": 6967,
      "3129": 6968,
      "28t23": 6969,
      "1860": 6970,
      "1835": 6971,
      "##lly": 6972,
      "##297": 6973,
      "##29c": 6974,
      "##cosal": 6975,
      "217": 6976,
      "276": 6977,
      "275": 6978,
      "27t05": 6979,
      "27278": 6980,
      "274031": 6981,
      "305": 6982,
      "##628": 6983,
      "##108": 6984,
      "##59d": 6985,
      "506": 6986,
      "##ray": 6987,
      "##38c": 6988,
      "##nelly": 6989,
      "##oprol": 6990,
      "##agement": 6991,
      "##de8": 6992,
      "##69d": 6993,
      "##fe8": 6994,
      "##fec": 6995,
      "5924": 6996,
      "##orer": 6997,
      "ratke": 6998,
      "##56e": 6999,
      "##140": 7000,
      "##2475": 7001,
      "343": 7002,
      "transfusion": 7003,
      "36749": 7004,
      "##dd6": 7005,
      "##088": 7006,
      "spray": 7007,
      "sporer": 7008,
      "##535": 7009,
      "56689": 7010,
      "##b9b": 7011,
      "320": 7012,
      "581": 7013,
      "##132": 7014,
      "491": 7015,
      "##755": 7016,
      "glover": 7017,
      "##glynn": 7018,
      "metoprol": 7019,
      "##7e5": 7020,
      "##f3c": 7021,
      "##aef": 7022,
      "management": 7023,
      "##836": 7024,
      "##dbe": 7025,
      "##a3e": 7026,
      "##a7c": 7027,
      "##fc6": 7028,
      "##72c": 7029,
      "##72b": 7030,
      "##dc7": 7031,
      "##dc3": 7032,
      "##b63": 7033,
      "308192": 7034,
      "##991": 7035,
      "##bf2": 7036,
      "7153": 7037,
      "surger": 7038,
      "866412": 7039,
      "781": 7040,
      "##a6c": 7041,
      "##a6b": 7042,
      "##f6f": 7043,
      "mcglynn": 7044,
      "polypectomy": 7045,
      "25258": 7046,
      "##d6f": 7047,
      "lock": 7048,
      "packed": 7049,
      "mucosal": 7050,
      "clavicle": 7051,
      "40701008": 7052,
      "705129": 7053,
      "83284": 7054,
      "donnelly": 7055,
      "ranch": 7056,
      "54303": 7057,
      "keebler": 7058,
      "murazik": 7059,
      "nienow": 7060,
      "venous": 7061,
      "1860491": 7062,
      "274031008": 7063,
      "metoprolol": 7064,
      "surgery": 7065,
      "3892": 7066,
      "445": 7067,
      "412": 7068,
      "758": 7069,
      "856": 7070,
      "8532": 7071,
      "932": 7072,
      "a0": 7073,
      "bo": 7074,
      "boy": 7075,
      "cat": 7076,
      "cod": 7077,
      "cow": 7078,
      "dus": 7079,
      "dander": 7080,
      "eg": 7081,
      "ej": 7082,
      "ger": 7083,
      "hollow": 7084,
      "hone": 7085,
      "herm": 7086,
      "late": 7087,
      "lem": 7088,
      "mit": 7089,
      "mil": 7090,
      "mite": 7091,
      "oa": 7092,
      "pac": 7093,
      "rap": 7094,
      "soy": 7095,
      "von": 7096,
      "vit": 7097,
      "##fish": 7098,
      "##aed": 7099,
      "##a19": 7100,
      "##cis": 7101,
      "##eh": 7102,
      "##eat": 7103,
      "##bar": 7104,
      "##be9": 7105,
      "##nut": 7106,
      "##iography": 7107,
      "##rued": 7108,
      "##lander": 7109,
      "##gw": 7110,
      "##gy": 7111,
      "##giography": 7112,
      "##hlin": 7113,
      "##yes": 7114,
      "##zon": 7115,
      "206": 7116,
      "204": 7117,
      "205": 7118,
      "##ery": 7119,
      "##orium": 7120,
      "##itzon": 7121,
      "##ole": 7122,
      "##anut": 7123,
      "19061": 7124,
      "11071": 7125,
      "##rimp": 7126,
      "##ce7": 7127,
      "##ce4": 7128,
      "##ce9": 7129,
      "089a9": 7130,
      "315": 7131,
      "31t05": 7132,
      "281": 7133,
      "289": 7134,
      "16t05": 7135,
      "##abc": 7136,
      "##293": 7137,
      "##290": 7138,
      "##452": 7139,
      "##09c": 7140,
      "218": 7141,
      "271": 7142,
      "132475": 7143,
      "##ila": 7144,
      "304": 7145,
      "anne": 7146,
      "angiography": 7147,
      "##ogy": 7148,
      "236": 7149,
      "26991": 7150,
      "##chell": 7151,
      "53439": 7152,
      "15t23": 7153,
      "##62f": 7154,
      "##50001": 7155,
      "wheat": 7156,
      "##acity": 7157,
      "296": 7158,
      "291": 7159,
      "clad": 7160,
      "508": 7161,
      "##386006": 7162,
      "##31009": 7163,
      "ragw": 7164,
      "##19c": 7165,
      "##19002": 7166,
      "##89f": 7167,
      "##8962": 7168,
      "##07007": 7169,
      "leann": 7170,
      "20014": 7171,
      "##853": 7172,
      "bee": 7173,
      "##179": 7174,
      "##698": 7175,
      "##fe2": 7176,
      "hayes": 7177,
      "##482": 7178,
      "##263": 7179,
      "##567": 7180,
      "57220": 7181,
      "##143": 7182,
      "##149": 7183,
      "33367": 7184,
      "##24f": 7185,
      "347": 7186,
      "344": 7187,
      "432": 7188,
      "##765": 7189,
      "##768": 7190,
      "house": 7191,
      "quitzon": 7192,
      "365": 7193,
      "islander": 7194,
      "##08f": 7195,
      "##08a": 7196,
      "##46007": 7197,
      "cardiol": 7198,
      "##ec1": 7199,
      "45305": 7200,
      "##71c": 7201,
      "schae": 7202,
      "748962": 7203,
      "peanut": 7204,
      "##067": 7205,
      "##068": 7206,
      "estate": 7207,
      "##13c": 7208,
      "##bd9": 7209,
      "##bdb": 7210,
      "##0c6": 7211,
      "##1c3": 7212,
      "##164": 7213,
      "71493000": 7214,
      "##036": 7215,
      "##fbc": 7216,
      "##1555": 7217,
      "##adf": 7218,
      "##adc": 7219,
      "##f37": 7220,
      "plaza": 7221,
      "##ae1": 7222,
      "##4b0": 7223,
      "##ughlin": 7224,
      "##fa4": 7225,
      "##faa": 7226,
      "##db2": 7227,
      "##a52": 7228,
      "##642": 7229,
      "##7fc": 7230,
      "##lach": 7231,
      "##laughlin": 7232,
      "##0dc": 7233,
      "##a3f": 7234,
      "##a36": 7235,
      "##a34": 7236,
      "##a7b": 7237,
      "##a8f": 7238,
      "##d5b": 7239,
      "ad10": 7240,
      "##7c5": 7241,
      "streich": 7242,
      "##ed69e9f": 7243,
      "##d1e": 7244,
      "##bean": 7245,
      "620": 7246,
      "##570": 7247,
      "225386006": 7248,
      "##a65": 7249,
      "##osporium": 7250,
      "9056": 7251,
      "##f4e1e": 7252,
      "mclaughlin": 7253,
      "allergy": 7254,
      "##a9b": 7255,
      "##bc2": 7256,
      "operative": 7257,
      "##d6b0": 7258,
      "473231009": 7259,
      "camila": 7260,
      "##ricular": 7261,
      "12994": 7262,
      "395142": 7263,
      "capacity": 7264,
      "shrimp": 7265,
      "village": 7266,
      "herbar": 7267,
      "ventricular": 7268,
      "301807007": 7269,
      "91529": 7270,
      "walnut": 7271,
      "1d8d6b0": 7272,
      "312961": 7273,
      "183519002": 7274,
      "58150001": 7275,
      "715340": 7276,
      "853259": 7277,
      "boeh": 7278,
      "boyle": 7279,
      "codfish": 7280,
      "dust": 7281,
      "egg": 7282,
      "ejection": 7283,
      "gerlach": 7284,
      "honey": 7285,
      "herman": 7286,
      "latex": 7287,
      "lemke": 7288,
      "mitchell": 7289,
      "milk": 7290,
      "oak": 7291,
      "pacific": 7292,
      "rapid": 7293,
      "soybean": 7294,
      "vonrued": 7295,
      "vitamin": 7296,
      "##cision": 7297,
      "089a9ed69e9f": 7298,
      "annex": 7299,
      "269911007": 7300,
      "cladosporium": 7301,
      "ragweed": 7302,
      "leannon": 7303,
      "2001499": 7304,
      "33367005": 7305,
      "cardiology": 7306,
      "schaefer": 7307,
      "395142003": 7308,
      "herbarum": 7309,
      "1d8d6b0f4e1e": 7310,
      "boehm": 7311,
      "vonrueden": 7312,
      "345": 7313,
      "362": 7314,
      "322": 7315,
      "429": 7316,
      "5800": 7317,
      "636": 7318,
      "7488": 7319,
      "bic": 7320,
      "dri": 7321,
      "gro": 7322,
      "mant": 7323,
      "siz": 7324,
      "##fluenza": 7325,
      "##d84": 7326,
      "##d5c": 7327,
      "##507": 7328,
      "##109": 7329,
      "##b76": 7330,
      "##b16": 7331,
      "##nsion": 7332,
      "##iod": 7333,
      "##ovirus": 7334,
      "##pid": 7335,
      "##zog": 7336,
      "##iness": 7337,
      "##ator": 7338,
      "##ed7": 7339,
      "##edd": 7340,
      "##iten": 7341,
      "##mension": 7342,
      "##ascular": 7343,
      "##arbon": 7344,
      "remp": 7345,
      "1945": 7346,
      "##ce3": 7347,
      "##cec": 7348,
      "##eter": 7349,
      "dimension": 7350,
      "31032": 7351,
      "311555": 7352,
      "287": 7353,
      "orth": 7354,
      "07t05": 7355,
      "##298006": 7356,
      "##455": 7357,
      "273": 7358,
      "22298006": 7359,
      "240": 7360,
      "##ogrel": 7361,
      "232": 7362,
      "235": 7363,
      "259": 7364,
      "2506": 7365,
      "##103": 7366,
      "##ac2": 7367,
      "298": 7368,
      "293": 7369,
      "299": 7370,
      "##31d": 7371,
      "##19a": 7372,
      "##1905": 7373,
      "##891": 7374,
      "##898": 7375,
      "##ainfluenza": 7376,
      "##857": 7377,
      "##865": 7378,
      "##869": 7379,
      "##de3": 7380,
      "##dea": 7381,
      "##17a": 7382,
      "##fe7": 7383,
      "##fe9": 7384,
      "haven": 7385,
      "##484": 7386,
      "##eech": 7387,
      "##264": 7388,
      "##566": 7389,
      "##56c": 7390,
      "337": 7391,
      "336": 7392,
      "334": 7393,
      "##24c": 7394,
      "342": 7395,
      "##764": 7396,
      "##437": 7397,
      "##436": 7398,
      "##825": 7399,
      "##123": 7400,
      "##dd5": 7401,
      "union": 7402,
      "speech": 7403,
      "##46e": 7404,
      "##ec9": 7405,
      "392": 7406,
      "##539": 7407,
      "##53c": 7408,
      "##015": 7409,
      "##064": 7410,
      "##139": 7411,
      "##1352": 7412,
      "##bda": 7413,
      "##754": 7414,
      "##1cf": 7415,
      "388": 7416,
      "##16007": 7417,
      "##03e": 7418,
      "##7e7": 7419,
      "##ccc": 7420,
      "##f35": 7421,
      "##f3e": 7422,
      "12634": 7423,
      "##ae6": 7424,
      "##ae2": 7425,
      "clopid": 7426,
      "##fa6": 7427,
      "##b3e": 7428,
      "##a54": 7429,
      "##a5c": 7430,
      "bcb2": 7431,
      "period": 7432,
      "##7f8": 7433,
      "##7f9": 7434,
      "lower": 7435,
      "##511": 7436,
      "##a3d": 7437,
      "##a3a": 7438,
      "##a8c": 7439,
      "##d3b": 7440,
      "87903": 7441,
      "751905": 7442,
      "##d8c": 7443,
      "##d8b": 7444,
      "##4c9": 7445,
      "##be7": 7446,
      "##eff": 7447,
      "##d79": 7448,
      "##1f8": 7449,
      "##af2": 7450,
      "##af4": 7451,
      "##f20": 7452,
      "aptt": 7453,
      "##f9f": 7454,
      "##ff5": 7455,
      "##c79": 7456,
      "##bcd": 7457,
      "##bc3": 7458,
      "triness": 7459,
      "##d0b": 7460,
      "##f5d": 7461,
      "##berg": 7462,
      "ferrous": 7463,
      "breiten": 7464,
      "309362": 7465,
      "herzog": 7466,
      "parainfluenza": 7467,
      "834102": 7468,
      "389221": 7469,
      "58000006": 7470,
      "bicarbon": 7471,
      "drive": 7472,
      "grove": 7473,
      "mante": 7474,
      "size": 7475,
      "rempel": 7476,
      "310325": 7477,
      "311555007": 7478,
      "1263416007": 7479,
      "clopidogrel": 7480,
      "trinessa": 7481,
      "breitenberg": 7482,
      "bicarbonate": 7483,
      "1st": 7484,
      "331": 7485,
      "759": 7486,
      "7497": 7487,
      "807e": 7488,
      "cu": 7489,
      "cip": 7490,
      "d0": 7491,
      "gast": 7492,
      "mild": 7493,
      "ry": 7494,
      "rot": 7495,
      "sars": 7496,
      "tend": 7497,
      "##fill": 7498,
      "##523": 7499,
      "##aee": 7500,
      "##cre": 7501,
      "##e5f": 7502,
      "##e64": 7503,
      "##test": 7504,
      "##bilization": 7505,
      "##ique": 7506,
      "##xac": 7507,
      "##intest": 7508,
      "##ora": 7509,
      "##ority": 7510,
      "##ed6": 7511,
      "##ed1": 7512,
      "##ntoin": 7513,
      "incre": 7514,
      "##ould": 7515,
      "##loxac": 7516,
      "stool": 7517,
      "##ce5": 7518,
      "##cea": 7519,
      "31t04": 7520,
      "288": 7521,
      "1611": 7522,
      "prefill": 7523,
      "##ab4": 7524,
      "##abe": 7525,
      "##45a": 7526,
      "##450": 7527,
      "17192": 7528,
      "210": 7529,
      "272": 7530,
      "227": 7531,
      "222": 7532,
      "244": 7533,
      "249": 7534,
      "302": 7535,
      "3077": 7536,
      "239": 7537,
      "266": 7538,
      "261352": 7539,
      "254": 7540,
      "##10f": 7541,
      "syring": 7542,
      "##598": 7543,
      "##599": 7544,
      "##59b": 7545,
      "##ac4": 7546,
      "##ac3": 7547,
      "294": 7548,
      "priority": 7549,
      "##382": 7550,
      "##31004": 7551,
      "##194": 7552,
      "##89b": 7553,
      "beca": 7554,
      "##866": 7555,
      "##de2": 7556,
      "##de5": 7557,
      "##176": 7558,
      "##172": 7559,
      "##17e": 7560,
      "##69f": 7561,
      "##693": 7562,
      "##mobilization": 7563,
      "excision": 7564,
      "##rointest": 7565,
      "##147": 7566,
      "339": 7567,
      "##246": 7568,
      "##243": 7569,
      "##76f": 7570,
      "##433": 7571,
      "##43c": 7572,
      "##433001": 7573,
      "##435004": 7574,
      "nitrof": 7575,
      "##025": 7576,
      "##02e": 7577,
      "##82a": 7578,
      "##82e": 7579,
      "##128": 7580,
      "##499": 7581,
      "##49c": 7582,
      "##08c": 7583,
      "394": 7584,
      "##22c": 7585,
      "intens": 7586,
      "##b96": 7587,
      "##b93": 7588,
      "##b90": 7589,
      "##474": 7590,
      "##474001": 7591,
      "328": 7592,
      "##06b": 7593,
      "##051": 7594,
      "##05b": 7595,
      "##13b": 7596,
      "##bd8": 7597,
      "##5f8": 7598,
      "##5f9": 7599,
      "##757": 7600,
      "##75a": 7601,
      "##75e": 7602,
      "##1c9": 7603,
      "##16b": 7604,
      "##fb7": 7605,
      "##fb5": 7606,
      "##15d": 7607,
      "##230": 7608,
      "##7e2": 7609,
      "##cc6": 7610,
      "##f3d": 7611,
      "##f34": 7612,
      "##d9d": 7613,
      "##atheter": 7614,
      "##833": 7615,
      "##b3f": 7616,
      "##b39": 7617,
      "##b3c": 7618,
      "##b3b": 7619,
      "##db6": 7620,
      "##db8": 7621,
      "##a57": 7622,
      "##a51": 7623,
      "##b8c": 7624,
      "##7f2": 7625,
      "seasonique": 7626,
      "##399": 7627,
      "##0df": 7628,
      "##0d6": 7629,
      "##5c7": 7630,
      "##5c9": 7631,
      "##dc5": 7632,
      "##dc8": 7633,
      "##urantoin": 7634,
      "##d54": 7635,
      "##b6c": 7636,
      "##df7": 7637,
      "##df6": 7638,
      "##d8f": 7639,
      "##d87": 7640,
      "##d80": 7641,
      "##bb2": 7642,
      "##1d6": 7643,
      "##d1f": 7644,
      "immobilization": 7645,
      "##be8": 7646,
      "##18b": 7647,
      "##1f7": 7648,
      "69856": 7649,
      "104435004": 7650,
      "##af6": 7651,
      "##af1": 7652,
      "##f81": 7653,
      "##1b1": 7654,
      "##e35": 7655,
      "occult": 7656,
      "##b25": 7657,
      "##f6c": 7658,
      "##f6b": 7659,
      "##e4e": 7660,
      "headach": 7661,
      "##rofloxac": 7662,
      "##a4d": 7663,
      "##b5d": 7664,
      "##d6d": 7665,
      "##d65": 7666,
      "##da1": 7667,
      "face": 7668,
      "should": 7669,
      "levora": 7670,
      "breast": 7671,
      "greatest": 7672,
      "84758": 7673,
      "274474001": 7674,
      "##041a6": 7675,
      "258041a6": 7676,
      "covid": 7677,
      "feces": 7678,
      "367498001": 7679,
      "748879": 7680,
      "orthop": 7681,
      "25064002": 7682,
      "749762": 7683,
      "cuff": 7684,
      "ciprofloxac": 7685,
      "gastrointest": 7686,
      "ryan": 7687,
      "rotator": 7688,
      "tendon": 7689,
      "increased": 7690,
      "16114001": 7691,
      "prefilled": 7692,
      "1719286": 7693,
      "307731004": 7694,
      "261352009": 7695,
      "syringe": 7696,
      "nitrofurantoin": 7697,
      "intensive": 7698,
      "698560000": 7699,
      "headache": 7700,
      "shoulder": 7701,
      "ciprofloxacin": 7702,
      "gastrointestinal": 7703,
      "4ed": 7704,
      "632": 7705,
      "642": 7706,
      "709": 7707,
      "8072": 7708,
      "av": 7709,
      "ach": 7710,
      "cra": 7711,
      "cut": 7712,
      "cef": 7713,
      "ce02": 7714,
      "catheter": 7715,
      "dx": 7716,
      "down": 7717,
      "e14": 7718,
      "e23": 7719,
      "emph": 7720,
      "fulf": 7721,
      "joint": 7722,
      "kn": 7723,
      "lon": 7724,
      "lar": 7725,
      "ma": 7726,
      "miren": 7727,
      "mead": 7728,
      "por": 7729,
      "role": 7730,
      "tol": 7731,
      "##ful": 7732,
      "##f08": 7733,
      "##f57": 7734,
      "##d02": 7735,
      "##d28": 7736,
      "##1de": 7737,
      "##1e9": 7738,
      "##826": 7739,
      "##a0c": 7740,
      "##a7f": 7741,
      "##tain": 7742,
      "##089": 7743,
      "##b5f": 7744,
      "##oid": 7745,
      "##sac": 7746,
      "##lig": 7747,
      "##ha": 7748,
      "##yse": 7749,
      "##zard": 7750,
      "##jor": 7751,
      "##ined": 7752,
      "##00c": 7753,
      "##00001": 7754,
      "##reational": 7755,
      "##erance": 7756,
      "##oring": 7757,
      "##itin": 7758,
      "##itox": 7759,
      "##itoring": 7760,
      "##ations": 7761,
      "##aracter": 7762,
      "reco": 7763,
      "strong": 7764,
      "##ce0": 7765,
      "dimin": 7766,
      "316": 7767,
      "318": 7768,
      "319": 7769,
      "31268": 7770,
      "280": 7771,
      "##abd": 7772,
      "##ab43": 7773,
      "##enadine": 7774,
      "##29e": 7775,
      "428": 7776,
      "##45f": 7777,
      "##457": 7778,
      "enox": 7779,
      "situations": 7780,
      "##093": 7781,
      "##09a": 7782,
      "270": 7783,
      "##aparin": 7784,
      "1338": 7785,
      "13191": 7786,
      "character": 7787,
      "246": 7788,
      "307": 7789,
      "301": 7790,
      "261": 7791,
      "##ulting": 7792,
      "251": 7793,
      "##627": 7794,
      "##624": 7795,
      "which": 7796,
      "##10e": 7797,
      "##597": 7798,
      "##591": 7799,
      "##59c": 7800,
      "##acf": 7801,
      "##ac7": 7802,
      "##ac5": 7803,
      "##acb": 7804,
      "290": 7805,
      "control": 7806,
      "##384": 7807,
      "##38e": 7808,
      "##38b": 7809,
      "##312": 7810,
      "##313": 7811,
      "##31e": 7812,
      "##314001": 7813,
      "##orts": 7814,
      "##ortant": 7815,
      "##899": 7816,
      "##89a": 7817,
      "##07c": 7818,
      "##07b": 7819,
      "desired": 7820,
      "obtain": 7821,
      "oblig": 7822,
      "new": 7823,
      "necess": 7824,
      "374": 7825,
      "##855": 7826,
      "##85b": 7827,
      "there": 7828,
      "##86b": 7829,
      "##owled": 7830,
      "##de1": 7831,
      "##de9": 7832,
      "##dee": 7833,
      "##uccess": 7834,
      "##17d": 7835,
      "##fe1": 7836,
      "hazard": 7837,
      "##48f": 7838,
      "##48d": 7839,
      "##48b": 7840,
      "##ee1": 7841,
      "##ee9": 7842,
      "##26d": 7843,
      "##26a": 7844,
      "##26c": 7845,
      "##24d": 7846,
      "##24e": 7847,
      "##43f": 7848,
      "##43d": 7849,
      "##432": 7850,
      "##4358": 7851,
      "##ifested": 7852,
      "##023": 7853,
      "##02c": 7854,
      "##02b": 7855,
      "##12b": 7856,
      "##49f": 7857,
      "##dd9": 7858,
      "##987": 7859,
      "##983": 7860,
      "##084": 7861,
      "##ec7": 7862,
      "##ec5": 7863,
      "##ecb": 7864,
      "region": 7865,
      "##716": 7866,
      "##718": 7867,
      "##71a": 7868,
      "recreational": 7869,
      "##222": 7870,
      "its": 7871,
      "467": 7872,
      "intox": 7873,
      "intend": 7874,
      "##b9e": 7875,
      "##470": 7876,
      "##065": 7877,
      "##055": 7878,
      "##13f": 7879,
      "##13d": 7880,
      "##134": 7881,
      "##bd7": 7882,
      "##5f5": 7883,
      "prosac": 7884,
      "##istic": 7885,
      "##75d": 7886,
      "##1c7": 7887,
      "##1cd": 7888,
      "##1cc": 7889,
      "387": 7890,
      "383": 7891,
      "##16c": 7892,
      "resulting": 7893,
      "problems": 7894,
      "##034": 7895,
      "##fb6": 7896,
      "##66004": 7897,
      "##15b": 7898,
      "##ea6": 7899,
      "##ea8": 7900,
      "##ea3": 7901,
      "##ad6": 7902,
      "##ad2": 7903,
      "##ad5": 7904,
      "##ada": 7905,
      "##cc7": 7906,
      "##ccd": 7907,
      "##cc3": 7908,
      "##74b": 7909,
      "##f3f": 7910,
      "##d9f": 7911,
      "##d92": 7912,
      "##d95": 7913,
      "##d91": 7914,
      "##d4a": 7915,
      "##ae4": 7916,
      "closely": 7917,
      "manifested": 7918,
      "##835": 7919,
      "##b34": 7920,
      "##b35": 7921,
      "##b3a": 7922,
      "##dbb": 7923,
      "##a50": 7924,
      "##a28": 7925,
      "##a2a": 7926,
      "##b88": 7927,
      "##7f6": 7928,
      "ulna": 7929,
      "##58c": 7930,
      "##58e": 7931,
      "##391": 7932,
      "##39b": 7933,
      "##phen": 7934,
      "unsuccess": 7935,
      "##421": 7936,
      "##73f": 7937,
      "##73d": 7938,
      "##736": 7939,
      "##735": 7940,
      "##73a": 7941,
      "##51b": 7942,
      "##a37": 7943,
      "##a79": 7944,
      "##a87": 7945,
      "##fc7": 7946,
      "##fc2": 7947,
      "##fc8": 7948,
      "##fc9": 7949,
      "##725": 7950,
      "##0e9": 7951,
      "##ished": 7952,
      "##d55": 7953,
      "##d50": 7954,
      "important": 7955,
      "##d37": 7956,
      "##d3e": 7957,
      "87433001": 7958,
      "##e96": 7959,
      "##e95": 7960,
      "##df8": 7961,
      "##df9": 7962,
      "reduced": 7963,
      "##d81": 7964,
      "##365": 7965,
      "##363": 7966,
      "198440": 7967,
      "##7c4": 7968,
      "deal": 7969,
      "##bb4": 7970,
      "##bb5": 7971,
      "##4cf": 7972,
      "##4c5": 7973,
      "698314001": 7974,
      "##55b": 7975,
      "##1da": 7976,
      "##b77": 7977,
      "##b7a": 7978,
      "##be3": 7979,
      "##4f2": 7980,
      "##4f8": 7981,
      "##18c": 7982,
      "##99007": 7983,
      "##994358": 7984,
      "##9cf": 7985,
      "##d78": 7986,
      "##bf6": 7987,
      "clinical": 7988,
      "##e78": 7989,
      "##37b": 7990,
      "antitox": 7991,
      "##e20": 7992,
      "##e2b": 7993,
      "##0a1": 7994,
      "##63a": 7995,
      "##aff": 7996,
      "##af7": 7997,
      "##e6f": 7998,
      "##e65": 7999,
      "##e6a": 8000,
      "##a67": 8001,
      "##a6e": 8002,
      "##1b2": 8003,
      "##1b5": 8004,
      "##787": 8005,
      "##e3c": 8006,
      "##e8c": 8007,
      "##e8e": 8008,
      "##e8b": 8009,
      "384700001": 8010,
      "##60f": 8011,
      "##1a4": 8012,
      "##1a1": 8013,
      "##d2f": 8014,
      "##fff": 8015,
      "##bc6": 8016,
      "##bc8": 8017,
      "##b5e": 8018,
      "##6c5": 8019,
      "##d6b": 8020,
      "##c8d": 8021,
      "##1e5": 8022,
      "given": 8023,
      "defined": 8024,
      "related": 8025,
      "relieve": 8026,
      "##ological": 8027,
      "5a994358": 8028,
      "65966004": 8029,
      "radius": 8030,
      "##kely": 8031,
      "tetanus": 8032,
      "ferritin": 8033,
      "##1a8b": 8034,
      "efforts": 8035,
      "monitoring": 8036,
      "likely": 8037,
      "##ersonal": 8038,
      "interpersonal": 8039,
      "psychological": 8040,
      "834061": 8041,
      "000833": 8042,
      "because": 8043,
      "807283": 8044,
      "avoid": 8045,
      "achieve": 8046,
      "craving": 8047,
      "dxa": 8048,
      "emphyse": 8049,
      "fulfill": 8050,
      "knowled": 8051,
      "longer": 8052,
      "larger": 8053,
      "major": 8054,
      "mirena": 8055,
      "meadow": 8056,
      "tolerance": 8057,
      "recover": 8058,
      "diminished": 8059,
      "312681000": 8060,
      "enoxaparin": 8061,
      "133899007": 8062,
      "characteristic": 8063,
      "obligations": 8064,
      "necessary": 8065,
      "hazardous": 8066,
      "intoxication": 8067,
      "intended": 8068,
      "prosacco": 8069,
      "unsuccessful": 8070,
      "antitoxin": 8071,
      "5a9943581a8b": 8072,
      "emphysema": 8073,
      "knowledge": 8074,
      "3ed": 8075,
      "3d2": 8076,
      "41000": 8077,
      "469": 8078,
      "643": 8079,
      "949": 8080,
      "954": 8081,
      "a7f": 8082,
      "aa80": 8083,
      "binding": 8084,
      "b19": 8085,
      "ces": 8086,
      "cab": 8087,
      "c23": 8088,
      "cann": 8089,
      "d0d": 8090,
      "d72": 8091,
      "d9c": 8092,
      "kil": 8093,
      "lor": 8094,
      "lil": 8095,
      "mag": 8096,
      "ny": 8097,
      "port": 8098,
      "##f1c": 8099,
      "##f27": 8100,
      "##d69": 8101,
      "##dfe": 8102,
      "##db9": 8103,
      "##d72": 8104,
      "##d63": 8105,
      "##daf": 8106,
      "##dermal": 8107,
      "##6001": 8108,
      "##843": 8109,
      "##805": 8110,
      "##309": 8111,
      "##a76": 8112,
      "##a43": 8113,
      "##a06": 8114,
      "##aaf": 8115,
      "##cine": 8116,
      "##e45": 8117,
      "##0db": 8118,
      "##0f8": 8119,
      "##0bc": 8120,
      "##b45": 8121,
      "##back": 8122,
      "##b22": 8123,
      "##pical": 8124,
      "##uction": 8125,
      "##gio": 8126,
      "##gital": 8127,
      "##vascular": 8128,
      "##xof": 8129,
      "##00a": 8130,
      "##00e": 8131,
      "##atadine": 8132,
      "##ed4": 8133,
      "prop": 8134,
      "1062": 8135,
      "11466": 8136,
      "topical": 8137,
      "1239": 8138,
      "##cee": 8139,
      "digital": 8140,
      "16052": 8141,
      "##aba": 8142,
      "##ab0": 8143,
      "##29d": 8144,
      "##296": 8145,
      "##294": 8146,
      "427": 8147,
      "423": 8148,
      "##ema": 8149,
      "##arean": 8150,
      "##09f": 8151,
      "228": 8152,
      "##ilep": 8153,
      "303": 8154,
      "section": 8155,
      "257": 8156,
      "256": 8157,
      "7361": 8158,
      "##10d": 8159,
      "##106": 8160,
      "##596": 8161,
      "##592": 8162,
      "##594": 8163,
      "##ac1": 8164,
      "##ac9": 8165,
      "297": 8166,
      "295": 8167,
      "clamp": 8168,
      "##311": 8169,
      "##19e": 8170,
      "##ortison": 8171,
      "44ab43": 8172,
      "##897": 8173,
      "##894": 8174,
      "##07f": 8175,
      "##85f": 8176,
      "##858": 8177,
      "##85a": 8178,
      "##850": 8179,
      "##86f": 8180,
      "##864": 8181,
      "##86a": 8182,
      "##deb": 8183,
      "##690": 8184,
      "##69004": 8185,
      "##fef": 8186,
      "##26b": 8187,
      "##56a": 8188,
      "##14e": 8189,
      "##14b": 8190,
      "335": 8191,
      "##247": 8192,
      "##241": 8193,
      "##76d": 8194,
      "##76e": 8195,
      "transdermal": 8196,
      "##02a": 8197,
      "##82f": 8198,
      "##821": 8199,
      "##82c": 8200,
      "##12a": 8201,
      "cream": 8202,
      "cremin": 8203,
      "363": 8204,
      "##49a": 8205,
      "##49e": 8206,
      "##dd3": 8207,
      "##08d": 8208,
      "##465": 8209,
      "##46b": 8210,
      "##ec2": 8211,
      "450": 8212,
      "418": 8213,
      "##01d": 8214,
      "##013": 8215,
      "##47b": 8216,
      "##06d": 8217,
      "##06a": 8218,
      "##06c": 8219,
      "##060": 8220,
      "##06006": 8221,
      "##135": 8222,
      "##bdf": 8223,
      "490": 8224,
      "##0cf": 8225,
      "##0c5": 8226,
      "##0c3": 8227,
      "##0c9": 8228,
      "##752": 8229,
      "##75b": 8230,
      "##1c4": 8231,
      "##1c5": 8232,
      "##1c8": 8233,
      "##683": 8234,
      "##68b": 8235,
      "384": 8236,
      "##161": 8237,
      "##163": 8238,
      "##16a": 8239,
      "heights": 8240,
      "##fbf": 8241,
      "##fb4": 8242,
      "##fb0": 8243,
      "epilep": 8244,
      "##04d": 8245,
      "##04e": 8246,
      "##158": 8247,
      "##15e": 8248,
      "##ea7": 8249,
      "##ea4": 8250,
      "##23c": 8251,
      "##327": 8252,
      "##7e4": 8253,
      "##ad3": 8254,
      "##ad9": 8255,
      "##cc4": 8256,
      "##cc5": 8257,
      "##742": 8258,
      "##74c": 8259,
      "350": 8260,
      "##f39": 8261,
      "##f3b": 8262,
      "##d99": 8263,
      "##d4d": 8264,
      "##d41": 8265,
      "##ae5": 8266,
      "##4b2": 8267,
      "##4b1": 8268,
      "##fa5": 8269,
      "##fa1": 8270,
      "##837": 8271,
      "##83e": 8272,
      "##b3d": 8273,
      "##a55": 8274,
      "##a25": 8275,
      "##a2b": 8276,
      "##64c": 8277,
      "##b8f": 8278,
      "##b8a": 8279,
      "hydrocortison": 8280,
      "##7f5": 8281,
      "##287": 8282,
      "##28e": 8283,
      "##94e": 8284,
      "##0d7": 8285,
      "##42b": 8286,
      "##4252": 8287,
      "##737": 8288,
      "##734": 8289,
      "##a7a": 8290,
      "##a70": 8291,
      "##a81": 8292,
      "##a88": 8293,
      "##fc3": 8294,
      "##fca": 8295,
      "##dc9": 8296,
      "##dc0": 8297,
      "440546007": 8298,
      "##0ef": 8299,
      "##0e6": 8300,
      "##0eb": 8301,
      "##d36": 8302,
      "##e9a": 8303,
      "##e9c": 8304,
      "##e9e": 8305,
      "##e90": 8306,
      "##61b": 8307,
      "##b65": 8308,
      "##b6e": 8309,
      "##b60": 8310,
      "##d8e": 8311,
      "##36c": 8312,
      "##7c3": 8313,
      "##bb7": 8314,
      "##93c": 8315,
      "##2c1": 8316,
      "##55a": 8317,
      "##b78": 8318,
      "##d1b": 8319,
      "854252": 8320,
      "##4f6": 8321,
      "##181": 8322,
      "62ce": 8323,
      "fexof": 8324,
      "##bf8": 8325,
      "##bf9": 8326,
      "##bf0": 8327,
      "##1f6": 8328,
      "##e77": 8329,
      "##377": 8330,
      "##c4a": 8331,
      "##e2d": 8332,
      "##0a6": 8333,
      "##57009": 8334,
      "##f87": 8335,
      "##a6f": 8336,
      "##1ba": 8337,
      "##78a": 8338,
      "##e34": 8339,
      "##e3e": 8340,
      "littel": 8341,
      "##b2d": 8342,
      "##f6a": 8343,
      "10877": 8344,
      "##f92": 8345,
      "##d2b": 8346,
      "##a96": 8347,
      "##a92": 8348,
      "##a95": 8349,
      "##8eb": 8350,
      "##bc5": 8351,
      "##bcb": 8352,
      "##d6e": 8353,
      "##c2b": 8354,
      "##f7a": 8355,
      "##kinson": 8356,
      "heparin": 8357,
      "rectum": 8358,
      "84757009": 8359,
      "##etta": 8360,
      "000813": 8361,
      "43218": 8362,
      "orthopedic": 8363,
      "porcine": 8364,
      "410006001": 8365,
      "cesarean": 8366,
      "kilback": 8367,
      "loratadine": 8368,
      "liletta": 8369,
      "maggio": 8370,
      "nyha": 8371,
      "106258": 8372,
      "11466000": 8373,
      "123994": 8374,
      "1605257": 8375,
      "736169004": 8376,
      "44ab43e4": 8377,
      "epilepsy": 8378,
      "hydrocortisone": 8379,
      "fexofenadine": 8380,
      "0007": 8381,
      "324": 8382,
      "382": 8383,
      "485": 8384,
      "549": 8385,
      "5ad": 8386,
      "5f2": 8387,
      "683": 8388,
      "699": 8389,
      "6e6": 8390,
      "63c": 8391,
      "798": 8392,
      "7f2": 8393,
      "808": 8394,
      "85c": 8395,
      "905": 8396,
      "9c2": 8397,
      "a19": 8398,
      "a05": 8399,
      "a9e": 8400,
      "a3b": 8401,
      "a3c": 8402,
      "b43": 8403,
      "b5f": 8404,
      "c2c": 8405,
      "d6b": 8406,
      "eee": 8407,
      "e4c": 8408,
      "f45": 8409,
      "f22": 8410,
      "f1d": 8411,
      "f3b": 8412,
      "gis": 8413,
      "gal": 8414,
      "goy": 8415,
      "iu": 8416,
      "ky": 8417,
      "kir": 8418,
      "max": 8419,
      "nu": 8420,
      "narr": 8421,
      "pa": 8422,
      "pt": 8423,
      "vist": 8424,
      "vag": 8425,
      "wy": 8426,
      "##f46": 8427,
      "##f4b": 8428,
      "##f52": 8429,
      "##7488": 8430,
      "##dan": 8431,
      "##d68": 8432,
      "##5db": 8433,
      "##1a3": 8434,
      "##a62": 8435,
      "##a38": 8436,
      "##a08": 8437,
      "##a47": 8438,
      "##c59": 8439,
      "##c3c": 8440,
      "##e48": 8441,
      "##062": 8442,
      "##b66": 8443,
      "##bfa": 8444,
      "##ovascular": 8445,
      "##liv": 8446,
      "##lason": 8447,
      "##uce": 8448,
      "##hy": 8449,
      "##ka": 8450,
      "##kery": 8451,
      "##inka": 8452,
      "ondan": 8453,
      "##setron": 8454,
      "##edf": 8455,
      "##ed2": 8456,
      "##ed8": 8457,
      "##eda": 8458,
      "##ede": 8459,
      "##ed0": 8460,
      "proth": 8461,
      "1959": 8462,
      "station": 8463,
      "##ce1": 8464,
      "31043": 8465,
      "1856": 8466,
      "##ab1": 8467,
      "##abb": 8468,
      "##ena": 8469,
      "##29f": 8470,
      "##292": 8471,
      "1746": 8472,
      "1740": 8473,
      "##09e": 8474,
      "1367": 8475,
      "247": 8476,
      "242": 8477,
      "241": 8478,
      "243": 8479,
      "##uron": 8480,
      "##ural": 8481,
      "##3008": 8482,
      "238": 8483,
      "23041": 8484,
      "23697": 8485,
      "264": 8486,
      "25467": 8487,
      "##62d": 8488,
      "##62a": 8489,
      "##620": 8490,
      "##593": 8491,
      "##59a": 8492,
      "##acd": 8493,
      "##strong": 8494,
      "##38d": 8495,
      "##381": 8496,
      "##389": 8497,
      "##38a": 8498,
      "##31f": 8499,
      "447": 8500,
      "441": 8501,
      "##896": 8502,
      "##893": 8503,
      "##074": 8504,
      "##078": 8505,
      "##leena": 8506,
      "377": 8507,
      "375": 8508,
      "371": 8509,
      "##rombin": 8510,
      "##85e": 8511,
      "##868": 8512,
      "##de0": 8513,
      "##178": 8514,
      "##175c": 8515,
      "##692": 8516,
      "##695": 8517,
      "##699": 8518,
      "##69e": 8519,
      "##fe6": 8520,
      "##48e": 8521,
      "##480": 8522,
      "##eee": 8523,
      "##141": 8524,
      "##14a": 8525,
      "##249": 8526,
      "346": 8527,
      "437": 8528,
      "436": 8529,
      "435": 8530,
      "##766": 8531,
      "##763": 8532,
      "transfer": 8533,
      "##021": 8534,
      "##827": 8535,
      "##12d": 8536,
      "##120": 8537,
      "##1226": 8538,
      "361": 8539,
      "##490": 8540,
      "##49b": 8541,
      "##ddd": 8542,
      "##984": 8543,
      "##98e": 8544,
      "spinka": 8545,
      "##460": 8546,
      "##46005": 8547,
      "##ecf": 8548,
      "##ecd": 8549,
      "45797": 8550,
      "393": 8551,
      "##228": 8552,
      "##223": 8553,
      "##22e": 8554,
      "005": 8555,
      "416": 8556,
      "411": 8557,
      "54109": 8558,
      "##01e": 8559,
      "##473": 8560,
      "##050": 8561,
      "##1372": 8562,
      "##bd2": 8563,
      "##bd1": 8564,
      "##5fd": 8565,
      "##5f0": 8566,
      "##0c7": 8567,
      "##0cb": 8568,
      "corkery": 8569,
      "##1c2": 8570,
      "##687": 8571,
      "##688": 8572,
      "380": 8573,
      "##16f": 8574,
      "##160": 8575,
      "##030": 8576,
      "##fba": 8577,
      "##04c": 8578,
      "##66f": 8579,
      "##151": 8580,
      "##236": 8581,
      "##234": 8582,
      "##235": 8583,
      "##233": 8584,
      "dach": 8585,
      "##32f": 8586,
      "##325": 8587,
      "##32c": 8588,
      "##7e6": 8589,
      "##7e9": 8590,
      "##ad8": 8591,
      "##adb": 8592,
      "355": 8593,
      "##d93": 8594,
      "##d9e": 8595,
      "##aeb": 8596,
      "instrumental": 8597,
      "##30d": 8598,
      "##84d": 8599,
      "##84a": 8600,
      "##84e": 8601,
      "##84b": 8602,
      "##4b3": 8603,
      "##fa3": 8604,
      "##83c": 8605,
      "##b37": 8606,
      "##dbf": 8607,
      "##db7": 8608,
      "##db4": 8609,
      "##dba": 8610,
      "793": 8611,
      "percutaneous": 8612,
      "##64a": 8613,
      "##277": 8614,
      "##7f0": 8615,
      "##28a": 8616,
      "##0d3": 8617,
      "##0da": 8618,
      "##425": 8619,
      "##42c": 8620,
      "##518": 8621,
      "##51a": 8622,
      "##a33": 8623,
      "##a8b": 8624,
      "##334": 8625,
      "##335": 8626,
      "##33c": 8627,
      "##33b": 8628,
      "##72d": 8629,
      "997488": 8630,
      "##0e7": 8631,
      "##0e8": 8632,
      "##d5d": 8633,
      "##d5a": 8634,
      "armstrong": 8635,
      "##d3f": 8636,
      "##e92": 8637,
      "##61f": 8638,
      "##6185": 8639,
      "##b6b": 8640,
      "##df4": 8641,
      "##36f": 8642,
      "##52f": 8643,
      "deliv": 8644,
      "##4cd": 8645,
      "street": 8646,
      "##9e7": 8647,
      "##9e4": 8648,
      "##2c3": 8649,
      "##b79": 8650,
      "##d11": 8651,
      "##d1a": 8652,
      "##be2": 8653,
      "##be5": 8654,
      "##beb": 8655,
      "##18e": 8656,
      "feest": 8657,
      "##ef4": 8658,
      "##ef5": 8659,
      "##ef8": 8660,
      "##ef0": 8661,
      "##d70": 8662,
      "##1ff": 8663,
      "##1f0": 8664,
      "##e2e": 8665,
      "69759": 8666,
      "##63f": 8667,
      "##635": 8668,
      "##afd": 8669,
      "##578": 8670,
      "##f8f": 8671,
      "##f8c": 8672,
      "##f21": 8673,
      "##e67": 8674,
      "##a60": 8675,
      "##788": 8676,
      "##f4d": 8677,
      "##f44": 8678,
      "##e3d": 8679,
      "##50b": 8680,
      "##b2f": 8681,
      "##3c9": 8682,
      "##e44": 8683,
      "##f97": 8684,
      "##f95": 8685,
      "##d2d": 8686,
      "##ff1": 8687,
      "##c0f": 8688,
      "##a4a": 8689,
      "##a9d": 8690,
      "##8e5": 8691,
      "##bcf": 8692,
      "##87b": 8693,
      "##b5a": 8694,
      "##b5b": 8695,
      "##ba1": 8696,
      "979": 8697,
      "##6cd": 8698,
      "##3a0": 8699,
      "##c25": 8700,
      "##f77": 8701,
      "##f7d": 8702,
      "##f79": 8703,
      "##0f5": 8704,
      "##79b": 8705,
      "##aaa": 8706,
      "epidural": 8707,
      "##c6f": 8708,
      "##antamine": 8709,
      "##88d": 8710,
      "cardiovascular": 8711,
      "##varing": 8712,
      "000625": 8713,
      "18946005": 8714,
      "51799": 8715,
      "949690": 8716,
      "000729": 8717,
      "gislason": 8718,
      "galantamine": 8719,
      "goyette": 8720,
      "kyleena": 8721,
      "kirlin": 8722,
      "nuvaring": 8723,
      "narrative": 8724,
      "pauce": 8725,
      "vista": 8726,
      "vaginal": 8727,
      "wynd": 8728,
      "##hydr": 8729,
      "ondansetron": 8730,
      "prothrombin": 8731,
      "195949": 8732,
      "310436": 8733,
      "1856546": 8734,
      "1740467": 8735,
      "1367439": 8736,
      "236974004": 8737,
      "delivery": 8738,
      "paucek": 8739,
      "0a7": 8740,
      "0df": 8741,
      "0e6": 8742,
      "0b4": 8743,
      "1003": 8744,
      "2ff": 8745,
      "2cf": 8746,
      "356": 8747,
      "419": 8748,
      "414": 8749,
      "4bd": 8750,
      "4cc": 8751,
      "4105": 8752,
      "4107": 8753,
      "5000": 8754,
      "5df": 8755,
      "5bb": 8756,
      "5c7": 8757,
      "5c9": 8758,
      "617": 8759,
      "626": 8760,
      "623": 8761,
      "6d9": 8762,
      "69e": 8763,
      "644": 8764,
      "700": 8765,
      "719": 8766,
      "768": 8767,
      "800": 8768,
      "829": 8769,
      "843": 8770,
      "898": 8771,
      "8a5": 8772,
      "858": 8773,
      "8ef": 8774,
      "909": 8775,
      "939": 8776,
      "936": 8777,
      "9a9": 8778,
      "a0c": 8779,
      "a2c": 8780,
      "a9c": 8781,
      "ae3": 8782,
      "a5a": 8783,
      "a0b": 8784,
      "b85": 8785,
      "b17": 8786,
      "b94": 8787,
      "b52": 8788,
      "bf2": 8789,
      "bromide": 8790,
      "cet": 8791,
      "c28": 8792,
      "c7c": 8793,
      "dic": 8794,
      "d9e": 8795,
      "d6e": 8796,
      "e5c": 8797,
      "eb2": 8798,
      "f17": 8799,
      "f49": 8800,
      "f4b": 8801,
      "f55": 8802,
      "f9a": 8803,
      "f6c": 8804,
      "lact": 8805,
      "lane": 8806,
      "mac": 8807,
      "mep": 8808,
      "roc": 8809,
      "sm": 8810,
      "san": 8811,
      "sock": 8812,
      "tum": 8813,
      "war": 8814,
      "witting": 8815,
      "yor": 8816,
      "##ford": 8817,
      "##f17": 8818,
      "##fected": 8819,
      "##farin": 8820,
      "##da8": 8821,
      "##dome": 8822,
      "##d67": 8823,
      "##119": 8824,
      "##114": 8825,
      "##112": 8826,
      "##1e6": 8827,
      "##1e8": 8828,
      "##884": 8829,
      "##38004": 8830,
      "##98009": 8831,
      "##a46": 8832,
      "##a75": 8833,
      "##a64": 8834,
      "##c68": 8835,
      "##e59": 8836,
      "##e17": 8837,
      "##e01": 8838,
      "##tting": 8839,
      "##010": 8840,
      "##012": 8841,
      "##0b9": 8842,
      "##0b8": 8843,
      "##0f4": 8844,
      "##08001": 8845,
      "##b85": 8846,
      "##b05": 8847,
      "##bb8": 8848,
      "##b1b": 8849,
      "##iri": 8850,
      "##roc": 8851,
      "##rop": 8852,
      "##ohydr": 8853,
      "##sart": 8854,
      "##lur": 8855,
      "##vention": 8856,
      "##mitt": 8857,
      "##zol": 8858,
      "##zine": 8859,
      "##zema": 8860,
      "##00f": 8861,
      "##erid": 8862,
      "##ed5": 8863,
      "##ed3": 8864,
      "##edul": 8865,
      "##als": 8866,
      "##oley": 8867,
      "1014": 8868,
      "##ociation": 8869,
      "1182": 8870,
      "##0008": 8871,
      "3117": 8872,
      "1659": 8873,
      "1648": 8874,
      "1665": 8875,
      "##abf": 8876,
      "##endi": 8877,
      "##299": 8878,
      "##29a": 8879,
      "422": 8880,
      "##45d": 8881,
      "##458": 8882,
      "end": 8883,
      "##096": 8884,
      "##095": 8885,
      "##ctional": 8886,
      "fork": 8887,
      "1319": 8888,
      "2436": 8889,
      "##urox": 8890,
      "306185": 8891,
      "##otrop": 8892,
      "260": 8893,
      "253": 8894,
      "##entan": 8895,
      "73823": 8896,
      "##628c": 8897,
      "##59e": 8898,
      "##stals": 8899,
      "##38f": 8900,
      "##38000": 8901,
      "##lowski": 8902,
      "##31a": 8903,
      "##31c": 8904,
      "##31b": 8905,
      "##19f": 8906,
      "##195": 8907,
      "##198": 8908,
      "##89e": 8909,
      "##073": 8910,
      "##07a": 8911,
      "##07002": 8912,
      "classification": 8913,
      "376": 8914,
      "378": 8915,
      "abdome": 8916,
      "197511": 8917,
      "##175": 8918,
      "##170": 8919,
      "##69a": 8920,
      "##fe5": 8921,
      "##fee": 8922,
      "##487": 8923,
      "##483": 8924,
      "##4809": 8925,
      "##ee2": 8926,
      "##ee4": 8927,
      "##eea": 8928,
      "408": 8929,
      "exer": 8930,
      "##267": 8931,
      "##265": 8932,
      "##565": 8933,
      "##560": 8934,
      "##1467": 8935,
      "##240": 8936,
      "##2498": 8937,
      "439": 8938,
      "4307": 8939,
      "##76c": 8940,
      "##76b": 8941,
      "##43e": 8942,
      "##43b": 8943,
      "554": 8944,
      "##022": 8945,
      "##8217": 8946,
      "##12f": 8947,
      "##4995": 8948,
      "##988": 8949,
      "##083": 8950,
      "##08de": 8951,
      "##08d0b": 8952,
      "alarm": 8953,
      "recept": 8954,
      "##467000": 8955,
      "appendi": 8956,
      "##ec8": 8957,
      "##ec45": 8958,
      "dooley": 8959,
      "391": 8960,
      "##715": 8961,
      "##53d": 8962,
      "##53e": 8963,
      "##530": 8964,
      "##5332": 8965,
      "##225": 8966,
      "413": 8967,
      "41507": 8968,
      "schedul": 8969,
      "466": 8970,
      "##016": 8971,
      "483": 8972,
      "48c": 8973,
      "intub": 8974,
      "##b97": 8975,
      "##b9a": 8976,
      "52765": 8977,
      "##472": 8978,
      "##47c": 8979,
      "loaf": 8980,
      "323": 8981,
      "activated": 8982,
      "##06005": 8983,
      "##05c": 8984,
      "##0562": 8985,
      "##053004": 8986,
      "##138001": 8987,
      "##bd0": 8988,
      "##bdce": 8989,
      "##5fc": 8990,
      "##5fb": 8991,
      "##0c0": 8992,
      "105385": 8993,
      "affected": 8994,
      "##758": 8995,
      "##1cb": 8996,
      "##68c": 8997,
      "##16e": 8998,
      "658": 8999,
      "65ee": 9000,
      "##03d": 9001,
      "##0336": 9002,
      "1093": 9003,
      "##04f": 9004,
      "##04b": 9005,
      "##66c": 9006,
      "##66e": 9007,
      "##66b": 9008,
      "##1552": 9009,
      "##eaf": 9010,
      "##ea0": 9011,
      "##237": 9012,
      "##232": 9013,
      "##321": 9014,
      "##32a": 9015,
      "##7e8": 9016,
      "##ada8": 9017,
      "##74a": 9018,
      "352": 9019,
      "##f3a": 9020,
      "##d96": 9021,
      "##d90": 9022,
      "##ae3": 9023,
      "##30e": 9024,
      "clotting": 9025,
      "##842": 9026,
      "##4b7": 9027,
      "##4b8": 9028,
      "##4bc": 9029,
      "manor": 9030,
      "##faf": 9031,
      "##fa2": 9032,
      "##fa0": 9033,
      "##fazol": 9034,
      "##83f": 9035,
      "##839": 9036,
      "##83b": 9037,
      "##b3be": 9038,
      "##cker": 9039,
      "##a5a": 9040,
      "##a2f": 9041,
      "##64d": 9042,
      "##644": 9043,
      "##64e": 9044,
      "##b87": 9045,
      "##b81": 9046,
      "##b80": 9047,
      "##b8b": 9048,
      "##27a": 9049,
      "##270": 9050,
      "##28b": 9051,
      "##940": 9052,
      "##58f": 9053,
      "##581": 9054,
      "##5812": 9055,
      "##39c": 9056,
      "##39f3": 9057,
      "##phal": 9058,
      "##42d": 9059,
      "##51f": 9060,
      "##a35": 9061,
      "##a3b": 9062,
      "##5c2": 9063,
      "##5c4": 9064,
      "##a8e": 9065,
      "##fcd": 9066,
      "##fcb": 9067,
      "##fc12": 9068,
      "##336": 9069,
      "##33a": 9070,
      "##720": 9071,
      "999": 9072,
      "##d57": 9073,
      "##d52": 9074,
      "##d3c": 9075,
      "##e9b": 9076,
      "##e908d0b": 9077,
      "##61a": 9078,
      "225338004": 9079,
      "##b6f": 9080,
      "##b67": 9081,
      "##b6a": 9082,
      "##dfd": 9083,
      "##df0": 9084,
      "##525": 9085,
      "##52c": 9086,
      "association": 9087,
      "##rystals": 9088,
      "##7c6": 9089,
      "##7cb": 9090,
      "de44": 9091,
      "##4c6": 9092,
      "##4c2": 9093,
      "##4c0": 9094,
      "##93d": 9095,
      "##935": 9096,
      "##9e6": 9097,
      "##557": 9098,
      "##e056": 9099,
      "##b70": 9100,
      "861467": 9101,
      "##3b1": 9102,
      "##9a6": 9103,
      "##be6": 9104,
      "855332": 9105,
      "##4fd": 9106,
      "##4f5": 9107,
      "##4f0": 9108,
      "##990": 9109,
      "##9c9": 9110,
      "##9ca": 9111,
      "##bf5": 9112,
      "##bf1": 9113,
      "##1f1": 9114,
      "##378": 9115,
      "##c40": 9116,
      "percentage": 9117,
      "##0a9": 9118,
      "##40b": 9119,
      "762998009": 9120,
      "##af8": 9121,
      "##af9": 9122,
      "##af0": 9123,
      "##579": 9124,
      "##f8d": 9125,
      "##f25": 9126,
      "##f2b": 9127,
      "##a6a": 9128,
      "##a652": 9129,
      "##78c": 9130,
      "##e87": 9131,
      "##50f": 9132,
      "c3e45": 9133,
      "##35a": 9134,
      "##f67": 9135,
      "##3c3": 9136,
      "##1a9": 9137,
      "##670": 9138,
      "110467000": 9139,
      "##e4d": 9140,
      "95140": 9141,
      "##f91": 9142,
      "##70b": 9143,
      "##d2e": 9144,
      "##ffd": 9145,
      "981": 9146,
      "98044": 9147,
      "##a41": 9148,
      "##a97": 9149,
      "##bca": 9150,
      "committ": 9151,
      "phosphate": 9152,
      "##f0f": 9153,
      "##f0b": 9154,
      "##6c3": 9155,
      "##8a1": 9156,
      "##b4d": 9157,
      "##d6a": 9158,
      "##c21": 9159,
      "##c88": 9160,
      "##f7b": 9161,
      "##c5e": 9162,
      "##c5b": 9163,
      "##79f": 9164,
      "##790": 9165,
      "##5e5": 9166,
      "eczema": 9167,
      "1234995": 9168,
      "powlowski": 9169,
      "##0b0": 9170,
      "##8cb": 9171,
      "58816": 9172,
      "##777": 9173,
      "##c6d": 9174,
      "1808217": 9175,
      "functional": 9176,
      "intervention": 9177,
      "##88b": 9178,
      "3cbe": 9179,
      "34951": 9180,
      "cefazol": 9181,
      "monohydr": 9182,
      "309097": 9183,
      "309309": 9184,
      "park": 9185,
      "##ofol": 9186,
      "##oflur": 9187,
      "284053004": 9188,
      "ruecker": 9189,
      "objective": 9190,
      "82831": 9191,
      "82808001": 9192,
      "336698": 9193,
      "709138001": 9194,
      "cefurox": 9195,
      "cabg": 9196,
      "propofol": 9197,
      "maxillary": 9198,
      "##uronium": 9199,
      "79345008": 9200,
      "410538000": 9201,
      "410770002": 9202,
[...]
